00000123
fffffecc
0000032e
fffffdcc
000000f0
00000361
0000029a
fffffc6f
000003ec
0000017f
000001ec
00000205
000001d5
0000014d
ffffff1a
00000350
00000067
00000257
fffffd5d
0000017b
fffffc13
00000059
0000001f
0000034a
0000098e
000004d9
00000385
ffffff0e
fffffe5e
fffffb01
ffffff31
fffffeb8
00000485
ffffff33
0000013b
00000b2b
fffffe9a
000003b1
fffffebd
00000841
000003ca
fffffbaa
00000015
fffffde8
fffffb8d
fffffea3
fffffc6c
0000099e
000005eb
000005f1
ffffffbc
ffffff22
fffffdf9
fffffe43
ffffff45
0000030d
ffffffef
00000ef6
000007ca
fffffe6a
000000f2
00000280
00000105
fffffb49
00000265
fffffe33
000005d0
00000231
fffffd83
000000db
fffffca3
ffffff50
000001d5
fffffb68
fffffe39
00000973
0000066d
fffffddf
fffffd60
00000149
ffffff96
ffffffaf
fffffe4f
fffffd67
fffffe74
000004f4
fffffe8b
000004be
00000170
00000a95
00000179
fffffd61
fffffcd6
ffffff17
ffffff64
fffffaf1
fffffdd9
00001038
00000498
000000b1
fffffd07
000006da
0000010b
fffffcfb
000001bd
fffffd59
fffffde7
000000d3
fffffe12
0000035b
fffffc8a
ffffff81
fffffee3
0000013d
fffffe9e
fffffe3e
fffffe70
00000394
0000009b
ffffff25
000000f1
ffffffa9
000001d4
000001dd
00000055
00000180
00000116
000001e1
