01
06
07
10
19
13
02
f8
f7
0c
0e
13
f9
f7
fb
f1
eb
ef
17
2d
1a
2d
33
23
f9
f7
ee
06
f9
02
08
01
07
01
fc
02
fb
fe
f3
05
08
f9
0b
f9
f6
ef
e5
f8
ef
f6
ff
fc
ef
ff
fc
0e
06
06
24
14
ec
05
f7
ff
08
02
01
0b
09
f1
f9
f6
f6
f2
f9
e5
f7
0d
e9
f3
05
f1
ec
f2
ed
f3
fb
f2
f6
fd
02
02
02
fb
01
02
f7
fd
fe
f9
f6
f7
fc
fb
fa
fe
fb
ff
06
0d
04
00
03
04
f1
f8
f8
03
fb
eb
14
03
ec
16
fc
f3
fd
03
01
04
0c
01
05
00
fd
17
1a
17
06
02
fd
ef
ef
ea
0a
06
03
fb
fd
f5
fb
f4
eb
0d
0f
10
00
03
fe
fd
f7
f5
05
06
07
08
09
0a
f4
f0
f3
fb
fa
00
00
fd
06
fd
fb
fc
15
19
06
26
10
00
01
f3
e7
0a
0c
0e
00
07
00
01
f8
fa
08
ff
00
03
fe
01
00
01
09
fc
fc
f9
fe
03
ff
01
03
ff
06
15
0d
1a
22
14
04
01
00
fe
09
02
0e
14
12
ff
ef
fd
e9
e2
f0
f7
f6
f4
fd
ee
fc
ec
e9
03
e6
f8
17
f2
f8
1a
fd
ff
ef
18
00
e6
10
f3
ed
fd
ec
f5
f9
f5
f8
fc
f7
fa
f0
ec
e3
fb
01
fa
0d
12
11
0a
04
06
02
f6
fa
f0
e9
ed
fb
fb
03
0c
07
02
11
0a
04
fc
f5
f2
fd
f9
f8
f6
fb
fd
fe
fd
f5
f9
fc
fd
fd
02
05
fb
f8
fa
ff
02
07
07
0a
08
01
00
05
05
03
fe
02
00
fc
08
01
09
07
13
24
06
0c
16
00
08
0e
ff
09
14
01
0a
0d
ff
fc
f7
ff
fb
f9
fe
fd
ff
0a
04
03
02
01
09
00
ff
01
02
00
05
02
00
fb
05
00
f9
fa
fc
fe
fb
fc
ff
fd
ff
fd
ff
00
02
00
03
02
00
00
fd
00
00
0a
f9
ff
09
fb
fb
ff
f9
fe
09
fc
fe
01
02
00
09
fa
f6
f0
fc
fa
f8
01
02
02
f8
f8
f6
f1
f5
f8
ec
f3
fa
ee
f6
fd
fd
00
05
1c
15
04
f3
f8
f4
f8
f6
f4
f3
f6
f9
f8
f0
f3
fa
f7
f6
00
fb
f9
fe
f8
fb
fc
fd
08
02
05
0f
01
fe
fd
02
02
09
02
0c
10
f7
fb
03
fe
04
00
03
08
ff
f7
f6
f2
fc
f9
f6
02
03
01
02
01
01
00
05
07
05
04
08
fc
fc
f3
f6
fc
f8
f7
fe
08
04
07
09
02
0a
0f
01
00
f9
fd
03
05
02
07
06
00
01
fa
07
03
fe
02
08
09
01
03
03
f3
fc
00
fa
f7
ff
02
ff
08
fb
02
11
01
fe
06
04
00
04
f7
f6
f2
fb
fe
fd
08
05
08
f2
f4
f0
f4
f1
f4
f4
f8
fe
12
17
10
f4
f7
00
ef
ed
f1
07
06
0a
fe
03
0f
f7
fb
fe
fa
05
20
e7
ee
eb
ed
f5
ff
00
fa
f6
07
fb
fa
fb
fc
f6
f8
fa
fa
f7
04
00
fb
04
fc
ed
e0
ff
18
fb
02
0e
02
07
04
0d
0a
01
0c
0e
f3
fd
03
03
04
09
fe
ff
04
ff
01
02
fb
02
0d
fa
fb
fc
fe
fa
00
f8
02
01
fd
06
04
0a
08
08
fc
05
00
fa
fd
fe
fa
00
01
fe
00
fa
fe
02
fe
02
08
03
ef
fa
fc
e6
ed
f2
e9
eb
f4
f1
f3
fe
fb
18
06
05
18
03
0e
0b
0a
fe
ff
08
ee
f5
f4
06
13
1c
f5
fe
04
f3
f9
02
01
01
05
01
fc
fe
02
06
17
03
0c
0d
02
07
07
f9
fd
ff
fe
fc
00
fd
fc
fa
04
ff
01
f9
f6
f9
fe
fa
f8
f3
fa
fb
f3
12
10
f9
f9
f6
06
fc
f9
f6
f7
f6
f3
ee
f1
02
01
ff
fa
fa
f7
f3
f5
ee
f3
f2
ef
fd
fb
f9
05
04
ff
03
02
fd
16
2d
41
e7
f6
ff
f0
fe
02
f9
fb
07
f4
f4
fc
ed
f7
ef
fd
f8
f2
04
fe
fa
0a
07
01
f6
f9
00
05
f8
01
0b
fb
03
fa
f6
01
f8
00
f6
fe
03
01
ed
fa
ff
fb
0c
00
05
fb
04
02
fb
e7
1a
19
07
16
13
07
07
0c
18
f4
f7
fd
f3
f6
f6
0e
0b
ff
10
0b
fe
09
0a
04
fd
fa
f7
f9
f5
f5
fb
fd
f9
00
fe
fa
08
06
fc
04
fd
f8
fd
f8
f4
06
fd
ee
07
fa
eb
03
ff
ff
09
06
fd
05
0a
01
04
f1
00
0e
ef
f9
12
f5
f5
f8
f1
e8
0c
04
f3
0e
09
fa
fc
fb
fc
fe
ff
fb
fe
fe
f8
03
01
03
0c
05
00
0f
04
fb
06
02
fd
12
0b
ff
11
10
fe
09
04
fe
0d
12
02
0f
17
04
02
00
fb
05
02
fe
07
07
ff
00
fb
fb
05
ff
fb
09
01
fc
05
f8
f5
09
02
fb
08
0a
fc
01
ff
fa
08
0a
fd
07
09
01
09
fd
fa
fc
f6
f7
03
fa
fb
0b
08
fa
00
fe
f2
00
fc
f2
09
fc
fa
00
f9
f6
03
f7
fa
f7
f6
f3
fa
f9
f4
f9
fa
f4
f8
f6
fb
01
fd
fa
07
fd
f5
02
f7
fc
08
ff
f9
07
04
f4
07
ff
fc
05
01
fa
0a
09
f8
08
05
f9
19
14
fc
1f
18
fd
ff
f9
f8
09
03
fb
0d
07
fb
06
04
fe
05
ff
f8
01
00
fb
fe
fe
fc
03
01
fd
0e
02
fb
05
f8
f4
15
04
f9
14
09
fa
00
fb
02
08
02
fd
0a
00
fc
fd
f5
f4
04
fa
f6
07
04
f5
05
fd
fa
10
02
fe
10
07
fb
02
f5
ea
1f
0a
eb
27
12
eb
00
f6
f6
fb
f2
f9
fc
f5
fd
f9
f3
f3
f3
f6
f2
01
0a
04
f8
f6
fd
f3
f2
f9
f8
f2
f3
fa
f8
f6
e8
e6
e8
fe
08
00
f9
fa
fb
fc
f5
f8
03
00
02
fd
00
fd
00
f9
f8
00
fb
fd
04
00
0a
01
f3
09
05
fb
02
02
fc
fd
01
fa
fa
f8
f7
f6
03
05
03
fc
fb
fa
f8
fa
f8
f6
f2
f8
f5
ed
f8
07
04
02
01
02
04
06
fd
ff
0b
01
07
fb
f8
fa
00
f9
f9
08
02
fd
02
03
01
00
00
01
04
ff
ff
ff
fc
ff
02
00
00
12
15
0a
07
fe
03
0c
f3
f8
05
f3
02
f9
f4
f5
f2
ec
ee
fe
f5
f6
ff
08
08
fc
05
05
0b
17
11
eb
e0
e4
fc
fc
fa
24
4c
35
fc
fa
fd
fa
fc
fb
06
0c
05
08
09
0b
02
ff
01
04
04
08
f6
f8
fc
f6
f8
f9
09
09
08
ef
e6
e9
f8
eb
f9
06
07
16
fc
fa
fe
04
09
01
0f
12
10
01
fc
f9
08
03
fe
0b
03
02
07
07
03
09
06
05
00
fe
00
ed
e6
ea
dc
d7
d9
f8
03
f9
f4
ee
f0
ef
e8
ef
12
02
fd
06
06
04
fe
fb
03
00
f9
fe
fc
f8
fe
fc
f2
00
08
fb
fe
06
fb
fc
03
f3
f6
01
fe
05
06
fc
fe
06
f5
fc
0b
0a
11
0d
05
01
0d
03
03
ff
ef
f6
fe
fd
ff
f7
f6
f7
08
09
08
04
06
03
0b
06
04
05
fb
ff
ff
01
01
08
08
03
02
fd
fb
f4
f9
f3
fc
fb
01
01
fe
05
01
00
01
f0
ef
f6
f0
f2
f8
05
0b
00
f3
ee
ef
fc
f4
f8
03
16
12
f6
ff
ff
ff
f6
fe
f8
03
fa
ed
f1
ed
fc
f5
f6
0a
10
0c
fc
fa
f6
fe
ff
fd
01
02
f5
fa
ef
e6
f4
e7
f0
0e
16
00
f9
f4
e6
f9
ef
f2
07
0e
17
fd
01
04
fa
f8
fe
01
0d
07
fb
fc
fd
f9
f9
ff
f6
fa
f8
01
ff
fa
01
02
04
09
1c
0c
f5
f6
f6
fb
f5
ff
0d
12
10
ff
fb
f7
f4
eb
ef
f0
f0
f7
04
06
06
0c
0f
13
04
12
14
21
22
1f
20
0e
11
f1
ec
f7
05
03
07
14
15
11
0c
0b
09
00
00
03
06
04
06
f5
f5
ed
fc
fb
fc
f9
f6
fe
05
10
0a
f5
04
03
fd
f8
fe
0f
22
1b
11
14
10
0b
fe
07
11
0e
14
0a
07
08
f8
fa
fa
0f
12
0f
02
06
04
fd
fd
fc
f7
f2
ed
f0
f2
e9
ff
f9
fc
07
0b
07
08
0b
f6
f7
f0
f4
0a
26
0d
e9
ee
ed
ef
ed
ff
04
0d
fb
f3
ea
e8
ef
ea
f8
ff
0c
09
ec
f0
fb
f3
f2
00
0a
07
f3
02
f3
e8
f8
ea
fd
17
1e
17
f7
fb
f9
f0
f0
ef
ed
e9
ed
f5
f2
ff
0d
10
11
ff
f9
ff
fc
fd
ff
ee
fb
fe
01
01
fd
fe
fe
f9
fb
02
fe
01
07
08
f8
01
08
ee
fe
11
fb
f0
f7
fd
f3
f6
01
f4
fa
16
fe
ee
19
09
e9
11
0d
f0
fb
dc
d4
0a
e1
c8
15
f2
d6
f6
22
17
e4
13
11
d7
05
07
05
06
fe
00
05
fb
fb
02
00
0e
ed
ec
19
fd
ea
18
0e
f7
16
04
f0
20
15
e4
15
1c
f0
08
00
f7
02
00
f7
fc
fd
f5
03
00
f6
04
02
f2
04
01
f4
01
05
04
03
05
05
08
0b
06
14
f7
e1
10
fe
d5
05
04
e3
04
07
ff
fc
04
fb
f9
05
ff
fd
f9
fc
01
f9
01
0a
ff
05
06
fd
06
06
ff
07
fe
0c
14
04
02
09
04
ff
07
09
fc
04
10
08
05
0f
05
fe
0b
06
fe
08
f9
fb
08
fb
fd
0d
03
01
05
ee
e6
15
f6
df
00
03
f8
0b
08
fb
0b
10
fe
fc
11
04
02
04
09
03
06
09
05
07
06
fe
08
06
f8
09
03
f6
05
03
04
03
0e
fb
09
13
fc
10
1c
11
f4
f3
21
f0
ea
1b
fa
ee
01
fb
e3
09
f7
d1
0d
00
d9
fd
e8
e4
0f
f4
e5
14
fe
ec
07
f0
ed
ff
e7
ec
00
ea
f9
12
f1
f0
18
f6
e6
19
02
eb
fb
07
05
f6
0a
07
f2
0b
08
fd
f6
06
f9
f6
01
04
f8
06
fb
fc
fd
f9
f8
fa
fe
fe
01
09
0a
08
05
06
04
03
03
02
f0
ec
f1
ef
ee
ef
f0
f1
f3
fb
fb
fb
ff
fc
ff
00
ff
02
01
f9
fa
00
f8
fb
02
f8
f9
fb
fe
10
f9
fe
10
f6
fd
16
06
ff
03
03
fe
02
04
03
05
09
0c
0b
0a
0b
0a
0c
0c
0c
f9
f6
fa
f6
f7
fa
f5
f7
00
04
f8
f7
00
f4
f7
02
f6
f8
00
ff
01
02
fd
01
02
01
03
02
fc
00
00
fe
04
01
ff
00
01
fc
01
fd
fc
ff
fe
fc
02
10
fb
f8
08
f6
fb
0a
f6
fb
0b
0b
05
0a
06
04
05
05
05
04
04
0a
00
04
06
05
05
0a
f0
f0
ee
f0
f0
f4
f4
f5
fe
04
06
06
00
04
04
02
05
05
03
08
07
05
08
06
07
07
08
ff
ff
fe
fc
fe
fd
fc
00
00
ee
ef
f1
ef
ec
f0
ee
ed
f3
fb
f5
fc
fb
f8
fe
00
fc
04
06
03
05
04
03
05
05
04
06
04
00
00
01
02
01
01
00
01
fe
f5
f7
ed
ed
f1
ed
f2
f4
f8
f4
f1
f6
f4
f7
f2
f5
fa
04
f7
05
ff
f3
06
fc
f5
03
f8
fd
09
f9
fd
0a
f9
fb
0a
0a
fe
fb
fd
f5
fd
fc
f5
00
00
fa
fe
fc
fa
02
01
fb
00
0d
0d
0e
0d
0a
0a
0e
0c
07
04
07
05
ff
00
00
fe
ff
01
f0
ee
ef
f2
f0
ee
02
04
00
f6
f8
00
f9
f6
fb
10
0f
0d
fc
f2
f3
f8
fb
f8
ff
03
04
f1
f3
fe
eb
e9
f6
fb
f7
fc
08
08
0e
fc
f8
01
f8
f7
f4
15
0b
12
09
f9
f8
f1
ef
e9
1d
2d
11
17
28
18
00
06
08
f4
f4
f5
f6
f6
f1
04
02
01
01
06
12
0a
fe
fa
01
00
fc
06
07
1a
00
fd
01
fc
f8
f3
04
0c
08
00
02
00
fb
fa
fc
0a
05
08
02
00
00
fc
fb
fa
0d
17
0b
07
0f
07
f9
f8
f8
0d
08
13
f2
f5
01
f0
f5
f5
f5
f1
f6
f7
f3
f4
0f
12
10
0c
08
02
09
05
02
06
09
08
fd
ef
f3
fb
f3
ed
0b
10
02
fd
f5
fa
fc
fa
fb
08
08
0a
fe
fb
fb
fa
f6
f7
07
06
02
05
06
10
02
00
00
ff
fa
f9
0c
06
08
fd
fc
fe
02
03
03
ff
06
09
f5
f5
fa
fb
fd
fe
ff
ff
05
fd
f9
00
0a
08
0a
f8
fe
fa
fb
ff
ff
f7
f9
fc
fe
f9
f9
03
fe
fd
17
19
0e
02
0a
0b
07
00
03
fe
04
04
18
15
25
04
04
15
f0
ee
f6
02
08
0f
fe
f8
f6
f8
f8
f1
11
07
04
f7
f6
ff
fa
fd
00
06
0b
12
fb
04
04
f5
f6
ee
00
ff
00
ff
fc
04
01
04
07
f5
f3
fc
fe
fd
03
10
17
19
0e
fe
fe
ff
0c
17
00
06
11
fc
f5
ff
f6
f9
06
03
0b
13
db
eb
15
01
eb
eb
ea
ef
fc
fd
f6
ff
04
f2
eb
f9
f4
f6
0b
06
ff
00
0d
05
ff
fd
02
ef
f9
f1
e3
db
df
fb
ef
f2
06
01
0a
f0
f2
01
fc
fd
10
f7
00
11
f9
fb
0f
08
06
12
07
22
29
29
17
10
19
23
19
2b
20
11
1b
31
22
12
14
14
07
07
ff
fd
09
00
f5
fa
f9
f6
fc
00
f4
f5
f7
f7
f3
f3
04
f6
06
0a
fa
f7
09
06
07
0d
04
fb
08
0e
13
03
fc
0a
f9
f7
fb
ee
f6
08
fc
04
0b
ff
f1
05
fe
f0
06
12
00
03
0d
e2
f0
f9
fd
f9
da
f8
17
04
f1
f5
fe
eb
f2
fe
f8
fa
09
fe
0b
11
03
03
0b
02
10
fd
fe
0c
11
f4
f7
0c
f9
f5
10
08
f4
ee
fb
00
09
f5
ed
f9
f2
ee
dd
eb
fe
ee
e6
fe
0c
0a
09
09
0c
05
f9
ff
ff
05
01
03
08
fe
fc
05
01
03
de
f9
1f
ee
e9
05
05
fd
fe
ff
02
0c
1d
00
ed
1a
20
0c
d7
e0
f4
e0
ca
e2
eb
d6
df
0c
17
19
13
07
08
18
0f
0d
dc
da
e8
db
cd
df
e6
d5
dc
33
1b
06
2e
32
1b
0a
14
1e
12
fd
ff
0d
fe
f0
f1
00
04
ff
f9
08
0c
f9
04
13
01
f2
01
01
fd
fe
01
01
ed
ef
eb
07
07
0b
04
0b
08
ff
fe
00
08
23
1a
00
f3
f2
e3
f0
e6
08
09
05
fe
ff
00
09
09
ff
ff
fa
fb
f1
e9
ef
fd
ff
09
0b
13
12
ef
ea
ec
15
0c
fe
05
01
03
12
0f
10
0e
04
00
05
04
02
05
05
05
00
00
fd
0b
09
f6
f1
ef
f4
f7
00
fb
0c
02
00
ee
e3
ed
f5
f9
0c
02
02
ff
f9
f3
f1
fc
fb
fa
ff
fc
ff
f8
f0
f2
fd
f9
fb
f9
f7
f6
fe
fd
fb
04
01
00
0d
10
1b
fe
ef
eb
00
05
11
ff
06
07
0e
0d
0d
fe
f9
fc
09
05
05
07
04
09
05
08
09
f0
f1
f6
f9
11
0c
03
0c
0a
f7
f9
f8
03
07
07
0c
0d
07
06
05
07
fe
f8
fa
00
01
04
0e
16
02
ff
fd
fd
fa
f6
f7
14
20
08
f0
fc
05
01
02
05
f4
f0
f5
f0
e9
ed
ee
e8
ed
fb
f7
f9
0b
0c
0d
04
04
07
f5
f4
fa
fe
fc
ff
ff
fe
fe
04
24
10
17
1a
17
f2
f8
f5
06
13
17
f8
fd
fb
f8
f7
fa
07
07
0e
e2
d0
d9
fc
f6
fa
02
01
f2
ee
e7
f3
05
07
03
ef
07
12
fe
f7
f4
fa
fa
f9
07
05
04
e7
e7
e6
f1
03
10
f0
eb
f2
07
05
09
05
06
08
f6
fe
fd
f9
f6
f5
f7
f8
fa
fc
fd
ff
f2
f4
fc
f7
f9
03
04
06
0b
fb
f9
01
fd
f3
fc
07
f2
f7
04
f3
06
f4
fb
fe
06
03
08
05
0d
06
05
0e
fc
fc
fc
fd
f9
f5
03
f7
fa
09
01
02
0e
04
0d
09
11
0e
fe
fe
ed
e5
02
ed
ec
16
04
00
0a
02
04
0c
ff
ff
0c
02
fd
f4
f3
07
fb
00
f7
07
0a
f0
f0
f3
ff
f3
eb
01
f0
f4
fd
00
fe
07
fe
03
09
04
0b
0e
f7
fb
fa
fd
fa
fe
ff
ff
05
f4
ec
ed
f3
e8
ea
fb
f5
fc
10
0c
ff
07
fa
14
fe
03
1d
04
08
05
08
01
04
09
fc
00
fa
ec
f8
f9
e8
f1
07
fc
0a
fe
fd
04
fb
06
04
04
00
0c
04
01
03
f6
f3
f7
fe
f8
01
07
04
02
07
03
04
08
04
01
04
ff
06
05
02
06
05
0f
ff
0c
f7
0e
fe
fe
13
f9
12
09
ef
e7
e9
ed
e9
f1
f3
f3
01
fc
fa
ff
05
02
03
0f
0d
0b
03
01
fe
06
02
02
08
07
03
11
fd
02
0e
fe
0f
04
08
0a
fc
01
f6
00
fb
f0
fe
fb
07
ef
ec
e5
f4
ed
ed
f6
f2
02
f8
f9
0d
fd
07
00
08
11
f6
10
05
ec
11
f6
0e
00
fe
1c
fd
f7
fd
fb
f3
ff
f6
f6
f6
fd
f9
f4
0a
03
01
0b
08
00
03
00
07
f3
f2
08
f5
f7
0f
f4
f7
f4
fc
fd
fd
04
08
04
f7
ff
ea
fd
07
f3
f1
f7
eb
02
04
01
fc
02
00
03
04
05
f8
ec
ed
f8
ef
f1
01
00
09
03
01
fd
05
01
01
06
06
00
f7
fc
0d
f5
fe
09
f8
00
07
12
29
0e
25
32
15
f5
fa
e9
04
09
08
09
0c
09
04
02
fe
f8
f7
02
f8
f1
f5
04
f7
f5
04
05
05
0b
03
fe
0a
00
f5
fb
f1
ee
fe
f6
ec
fa
fa
f7
03
fd
ff
02
fe
fb
03
00
00
11
1c
05
16
1f
08
f1
f5
e6
fd
f0
f6
f8
f2
f8
fa
fa
f9
04
08
fe
f5
fa
f5
f3
f9
f4
16
2d
13
1d
30
13
ec
f1
e2
fb
fe
f1
fa
ff
f5
03
06
04
fa
08
f4
01
0c
f9
f1
fb
ed
0a
0a
09
0b
0b
0b
0a
07
07
10
0d
07
0d
10
03
f7
f6
f3
f8
f8
fa
fc
fe
00
01
06
09
01
fe
fa
fd
f9
f6
fa
fe
fa
0e
0d
0d
09
0c
0b
07
0a
0a
f3
f6
f1
f7
f6
f4
f2
f6
f2
fb
fe
fb
07
0d
06
10
11
07
f7
ff
02
fa
01
04
02
0a
09
06
02
0a
0a
10
12
04
0c
0b
ec
ef
fd
f4
f0
f5
00
ff
fc
f9
f2
fa
f6
fb
04
fa
00
09
f4
02
09
f6
fd
01
fc
f8
fa
e3
e4
e8
eb
ed
f2
0a
0d
10
17
1f
06
0c
19
03
ef
f4
e6
07
09
06
18
16
1a
0b
07
09
01
ff
ff
00
fe
00
01
f9
fa
18
23
23
12
06
0b
14
16
14
07
04
07
01
fe
03
ff
fa
00
09
fc
f7
06
e7
ed
06
f2
f5
18
f4
10
f0
cd
ee
f8
d1
f4
fe
08
05
f4
00
fc
fe
05
00
01
00
fb
01
fd
fd
07
03
04
0e
00
06
01
e8
f3
08
f9
00
14
fe
01
05
e3
e8
0b
ec
f0
fe
fc
06
f9
f8
02
f6
f4
00
06
01
06
fe
f3
fc
fe
f5
ff
09
0a
08
fa
f9
fe
01
fb
00
14
ff
03
01
d7
df
02
df
eb
02
00
ff
06
00
00
09
05
03
0c
ff
fe
01
f4
f7
fb
f3
f4
00
02
fe
0f
09
0c
12
07
04
05
fa
fd
06
00
02
01
fa
fd
07
05
05
07
02
01
0b
06
06
06
03
05
09
04
06
03
fd
01
12
01
07
ec
d0
e4
ff
e8
f7
08
00
0c
0b
01
0b
07
f9
06
fb
fc
fd
fb
fa
fc
00
fe
02
04
05
00
fe
00
00
01
00
ff
02
07
09
0c
fc
fa
07
01
01
03
03
0a
f0
e0
f4
f7
e0
f7
14
08
19
f7
d6
f3
03
de
02
fc
f2
0b
ec
de
fa
f7
e8
06
0d
05
0e
01
ef
fc
fd
f3
03
05
f9
01
fb
ea
f3
ff
ed
f5
ff
05
fe
01
03
fd
01
04
ff
04
ff
03
02
f9
f9
fa
f7
f7
18
2c
15
05
08
01
00
f9
fa
f3
f8
fb
f7
f7
fb
f4
f0
f5
0c
17
04
f6
08
f1
f4
fe
fd
11
16
09
05
00
f5
f6
ec
f8
ec
f2
f6
f8
04
06
01
08
ff
f7
e8
e2
08
fa
f6
0c
05
1f
27
21
23
f2
d0
e6
e6
c3
d9
f4
ff
03
e8
eb
f3
f6
f5
fa
e9
05
19
ef
0b
16
06
00
fc
e4
f2
08
e3
00
1d
fc
10
11
17
1e
18
28
1d
10
2a
09
ff
fc
f7
fb
03
00
ff
0c
09
02
04
05
05
ff
ff
fe
0a
04
06
ff
f3
f3
09
fc
06
0d
fe
10
ff
06
ff
f0
ea
ee
ea
e8
ef
09
10
0e
0c
14
0f
03
0e
09
fe
24
08
f3
13
f5
f8
f0
f3
fe
09
01
09
10
05
fd
04
fd
f5
ff
fa
ed
f2
f1
f5
f6
fb
01
01
08
ff
02
09
00
fa
fd
07
0b
00
13
13
04
06
fe
fd
fb
fe
fa
fe
fb
f2
08
0e
02
32
4b
35
1f
24
10
e8
d8
d5
0b
0e
0d
ff
fa
fe
f9
f0
fc
08
17
08
ec
f8
ed
f7
fd
f8
f6
f7
f9
08
0b
01
01
ff
02
f6
df
e0
08
f8
f3
18
19
11
eb
f1
03
02
04
0a
0e
01
ff
16
04
ed
19
01
ec
05
fc
08
e9
f5
00
eb
fd
0e
0f
03
0c
2b
4d
2e
04
00
f8
e1
c6
e0
01
03
f3
0b
10
00
fe
09
f9
34
2b
19
ff
0e
13
03
01
04
0e
11
0f
f6
01
0a
fc
ff
08
00
fa
fc
04
ff
f8
ff
03
06
03
06
04
03
05
04
05
08
04
06
03
ff
01
02
05
03
06
06
ed
ef
f7
f7
e9
e5
10
08
f9
0a
07
06
0c
0d
0d
08
0c
10
f6
f8
f9
fc
f9
f9
04
02
01
fd
f7
fb
04
02
f7
08
08
03
08
07
00
fe
01
05
04
0e
0e
f9
fa
fb
fa
fb
01
f9
fe
04
fc
00
fe
02
00
03
04
05
05
06
02
02
ff
01
fd
00
ff
00
f0
f3
f6
f5
f4
f9
fc
01
09
08
0a
0c
f9
fe
05
fc
fb
01
06
0e
16
ef
e9
f5
f6
ee
f2
21
13
06
fb
06
06
05
0a
0b
19
1b
18
f9
00
05
f5
f2
f6
f9
f8
fb
fb
f8
f7
03
00
ff
f9
fb
fc
fb
fd
fd
fd
02
03
15
0c
0a
03
fe
fd
01
03
03
fd
fd
fc
f4
f5
fd
03
06
ff
fc
fd
ff
f3
f3
f7
eb
e6
ec
fe
fd
00
04
05
01
04
07
03
0a
04
07
fe
f6
f3
f7
fb
ff
06
fe
fd
0d
07
fa
02
0a
07
f9
fe
02
0a
07
00
13
12
09
f3
f3
f6
fe
f4
ee
0a
04
fa
ec
ef
f7
f6
f0
ec
fa
00
fe
09
02
f7
fd
02
fd
07
07
02
f1
f4
f4
04
02
fc
01
06
fe
0f
16
16
f2
f3
fc
f4
ef
f8
f6
f7
f9
01
07
06
04
07
05
ee
ed
f0
09
0c
08
18
17
13
f9
f9
fa
04
05
fd
fc
00
fb
ff
05
00
04
06
02
ff
02
01
00
01
ff
02
ff
00
ff
fe
00
fd
fd
f7
05
05
05
00
ff
fe
f6
f5
f9
01
01
01
04
03
03
fe
fc
fa
0c
0c
08
08
06
03
02
06
03
0b
0a
0b
02
05
07
fe
fc
ff
03
01
04
ff
00
03
fc
fd
fe
fe
fb
fd
fa
fd
fd
ff
00
03
00
01
03
fe
fd
01
fc
fb
fc
02
03
03
00
00
01
fb
03
fc
01
03
fe
00
fb
fd
fa
fb
fd
0e
12
0f
15
14
12
f2
ef
f0
07
0a
05
0c
0a
08
eb
ed
eb
f9
fc
fa
f6
f8
f3
f1
f0
f3
fb
fa
fa
01
02
01
fd
ff
f7
05
0a
05
ff
04
00
f7
f8
f9
fd
00
fb
01
02
02
f3
f3
f5
04
02
00
f5
f2
f0
fb
f9
fd
00
04
07
fe
fe
01
0e
16
14
0f
17
13
0a
10
0c
fb
fa
fc
fd
fa
fa
fb
fc
fa
ee
f0
f0
05
0b
fd
fc
fd
f9
f9
fa
f6
09
0d
06
fb
fa
fa
fe
fa
01
fc
f9
00
00
fa
00
00
04
01
04
07
05
ff
03
03
ff
05
00
08
0a
fd
04
00
fc
ff
04
fc
04
09
02
ff
00
ff
02
06
05
f9
fc
fa
f2
f4
f3
f0
f3
ef
02
03
fe
02
07
01
fc
fe
06
13
28
13
0a
0a
fd
f8
f7
f8
fa
f6
f6
fb
f9
f6
03
0e
08
00
06
02
0b
13
05
00
03
fe
fa
02
02
08
06
01
fa
f9
fd
fb
f8
f9
fc
fd
01
ef
e5
f4
ee
fc
09
0f
0b
fc
f8
f3
fd
f3
ee
f3
f4
ee
f0
00
02
04
03
04
00
02
02
01
fc
f8
fe
fc
08
08
03
09
01
ff
f7
fb
f7
fb
00
fb
ff
0a
02
ff
ff
04
02
04
0c
06
04
00
fb
00
00
ff
ff
03
01
02
ff
fd
01
f9
f7
fc
00
fb
f9
f8
f1
f9
00
f3
f1
fd
04
0b
f5
f8
f8
06
09
01
0a
0c
09
f6
f8
f5
f0
f4
f6
f7
fa
fa
f6
f4
02
f8
22
1b
1e
28
fe
00
02
fc
fa
ff
fb
01
01
fa
02
05
03
fe
01
02
ff
03
02
01
01
fd
fa
f5
fb
07
0e
0b
fa
f9
ee
fe
06
13
00
0f
04
f9
f6
00
0c
1b
11
0c
04
fe
08
0f
0d
0a
0f
04
00
fd
fb
02
ff
02
fe
fc
fb
fb
f8
f9
04
10
09
07
09
f8
f4
f9
f9
f6
f9
fd
00
09
04
0e
fe
f7
fa
f5
fa
fd
fd
f5
0e
06
08
f4
f7
fb
fa
03
03
0c
05
ff
ff
04
03
0a
02
f2
07
08
01
fe
f9
fb
fc
fc
f5
f9
09
00
02
07
06
fc
00
fa
ec
e5
e6
01
04
fe
f6
fa
f3
fd
02
04
ff
0d
fb
ea
f6
ee
fb
0b
00
06
09
fa
ff
fb
f6
f9
fb
f5
00
1e
05
fa
13
f8
07
20
09
f3
fd
ee
f7
06
f7
fd
0a
fa
ff
fd
f8
07
09
00
fe
0b
fd
f5
09
e0
02
15
eb
ee
0b
e5
ed
04
eb
08
20
07
00
1f
05
f0
0c
e9
ff
21
fb
03
23
ff
f5
12
f9
f7
17
fe
fc
12
fd
01
02
fd
09
08
09
00
0d
07
f9
04
f5
fd
07
f8
fb
0b
f6
08
02
05
08
06
08
03
06
04
f7
0b
fd
03
1c
08
fb
14
02
e3
00
de
f7
10
ef
f3
0f
e9
fd
08
f2
f9
07
f3
fa
0b
f7
f1
0d
eb
ff
18
f9
f9
0f
f4
ee
09
e5
09
23
fa
f2
0f
ef
fe
06
fb
02
08
fd
f9
fc
f5
e9
0d
de
ff
2b
f8
01
2b
f4
00
12
03
ff
11
05
f9
09
fe
e4
f8
d7
ef
0a
db
da
fc
e6
15
12
13
08
01
06
0c
15
0d
00
07
00
04
0b
05
02
0f
02
f5
fa
f1
f5
fe
f8
f5
ff
f8
f3
0c
f5
f7
13
f6
f0
02
f4
ee
fc
ef
ed
10
fd
e3
fc
ee
14
09
12
1c
0d
1c
0c
0e
0e
f4
fa
fa
f6
08
00
f3
0a
fa
f0
14
e6
04
20
f5
00
1a
f8
eb
15
fe
fa
11
04
f7
10
05
e9
03
e4
f4
10
ef
f3
0f
ea
f3
06
ea
f9
06
f3
f3
fc
ee
f9
f7
05
e9
f5
00
e8
f4
fb
0c
02
01
ff
03
04
f5
f9
00
de
fc
f8
da
df
02
ea
e8
f5
f9
0e
04
f8
ff
04
f7
f9
02
fd
fa
0a
f4
fc
fa
fe
f6
01
02
1f
ee
ee
fe
0c
04
e9
05
07
f6
f6
05
f1
ed
08
fb
f0
03
09
ff
fc
03
07
fd
fe
0b
f8
33
0f
e7
0e
2f
ee
ee
1a
0e
06
21
fe
17
08
00
0a
0e
01
0a
06
fa
03
05
fa
fd
05
fd
f8
02
fa
fb
fa
fe
f8
fb
f8
04
fb
f9
f0
03
fc
f6
fb
01
f9
0d
0c
ff
fe
10
07
f8
05
ff
f8
f9
03
03
f4
f8
04
0b
0c
09
03
f7
02
07
fa
fe
fc
fb
19
fd
ed
02
04
0b
fa
fe
ff
fe
04
ff
05
fe
f8
fc
fd
06
07
fb
02
07
01
07
09
fd
0c
05
ff
09
0b
09
03
0c
0d
1a
0b
e6
12
0a
f6
f8
18
ee
eb
03
e0
de
e4
f2
e4
ed
f6
fc
fb
f6
ff
ff
f0
fa
01
01
01
06
07
02
02
07
05
01
f3
0c
f9
dc
f6
13
f2
ec
10
f9
35
13
e2
04
32
ed
ed
0d
f7
ea
01
ea
ea
e3
f7
e4
ea
01
2d
0b
ea
14
1f
f2
ed
17
f1
ef
f4
f9
e5
ec
09
f8
ed
00
03
0d
03
05
0e
fc
0a
f7
07
fd
fa
08
01
f6
01
01
ff
fd
03
03
fc
fc
08
fc
fe
01
f6
fa
01
f0
ef
f5
f3
f2
f7
00
ff
02
fe
f8
ff
ff
ef
f4
fc
f6
08
ed
f9
00
f7
ff
00
02
12
08
09
0d
00
0c
fb
08
fa
f7
0d
fd
00
0d
fd
0e
f8
fe
17
0b
00
1a
f4
0f
fe
13
19
f5
ee
0b
f1
f6
05
ff
08
06
ff
fc
04
fa
fe
09
03
03
ee
ed
ea
f3
ef
e8
fc
f6
03
ed
df
fa
f2
e7
f2
f9
fb
e8
f8
05
05
01
04
09
02
ff
0e
fc
05
fc
01
ff
07
00
03
04
00
f7
ee
ff
ed
fb
ff
f7
00
05
f5
1b
04
ff
0f
fe
1d
ec
fd
fd
03
fe
f8
02
00
f6
f6
07
f5
ef
fe
ed
f6
ff
ef
01
f3
0a
11
f2
fc
00
02
f2
12
09
01
fb
05
fe
00
05
f7
09
05
03
04
07
03
06
0e
04
0a
f8
f9
01
f4
07
fb
05
01
05
11
08
3b
fd
34
10
14
20
17
f1
05
f0
fe
ec
02
fa
f0
fa
fd
f0
e6
ff
eb
ea
fe
f1
fa
09
00
03
02
ff
08
04
01
06
fa
f6
04
e9
f2
f9
f3
ff
f8
fd
14
02
0c
fe
22
04
10
01
f9
12
f2
0a
fc
14
09
03
08
f2
05
f2
ff
ff
f2
0b
f7
0d
12
fd
1e
04
09
1c
fc
1d
fa
f7
e6
fb
f9
f3
e9
fb
00
ee
06
f9
f9
05
f1
f8
fc
f5
fc
09
05
0a
09
fd
0c
04
01
08
02
f9
f6
01
f5
f1
ff
f8
f5
f8
f1
f5
f4
e6
e5
f3
e1
e3
ff
f1
ef
0a
01
f2
fb
fc
f8
09
00
09
11
fd
17
fe
f4
15
fc
0b
fc
01
12
fd
f8
fb
f8
ec
f7
f8
fe
00
21
e1
f8
18
fc
08
0c
ee
f9
fc
ee
f5
f6
f3
f8
f7
f6
f7
f3
fd
00
f7
07
05
05
0b
06
fe
fe
02
f0
00
12
02
0d
20
f9
02
f6
eb
0b
06
10
10
02
14
06
fe
0f
03
02
05
08
07
0a
fe
fc
05
03
fa
07
07
fa
02
fe
fa
f9
08
02
f9
01
2c
fe
f4
07
f5
fe
f9
fd
f3
eb
ec
fd
fb
f7
fe
f4
f3
fc
f5
f0
fb
f4
f4
1b
06
05
15
04
f9
12
fe
00
fa
fb
f8
f1
ef
ef
ed
eb
f5
fd
fb
fb
fe
fe
ff
fa
fc
ff
10
0d
12
0e
ff
0f
0b
fe
0d
f5
fa
eb
04
f5
f9
07
08
fc
01
fa
f8
10
00
fe
ff
ff
02
f8
f2
ef
f9
f1
f4
f9
f2
f6
05
06
08
fd
08
04
fc
03
04
fd
fa
f6
04
ee
e2
1b
10
f1
fd
f0
02
0c
ee
f9
01
06
fe
0a
05
0a
20
13
14
f6
f6
07
0c
fd
10
15
fb
1d
fe
f8
05
0d
fa
ff
0d
0e
05
f7
0a
08
16
fb
04
1a
13
fd
0c
f9
e7
08
0a
08
f7
07
05
f2
05
04
0b
00
05
03
fb
f9
01
fe
01
04
00
fb
ff
f8
f4
04
02
fc
f5
f9
ff
02
fe
07
02
ff
07
30
21
13
f5
f1
ed
fc
fe
f3
08
02
ff
f7
f8
f1
f5
f5
f7
00
07
01
03
03
01
f9
01
fa
04
f2
f1
0d
07
ed
f7
fd
ee
ec
f6
05
f6
fd
09
f6
fe
03
00
fc
ff
fe
fc
ff
00
ff
fd
26
06
0a
0a
09
f6
03
01
f2
01
00
00
06
05
04
03
08
ff
fb
02
03
00
ff
03
02
fe
ff
fa
fd
01
02
07
06
fe
03
01
f6
f3
ff
fc
f8
ff
ff
fd
00
08
12
0b
05
0e
0a
f6
fe
02
f8
fa
fd
fd
fb
fe
fb
fe
fe
f9
f7
06
04
04
0f
0a
0a
0d
f3
00
00
eb
df
dd
07
ff
fc
f3
f2
fb
fe
fb
03
0a
00
05
01
fc
fe
f7
f2
f3
fc
f9
f8
0e
04
06
ff
fc
fb
f9
f9
f8
15
11
03
02
f8
f0
f2
f5
e7
fa
fa
f0
08
01
fb
07
09
fb
09
08
07
01
ff
00
02
01
00
fb
00
fe
fa
fd
00
fc
fe
fe
1d
15
1c
02
f7
f6
f7
f8
ec
13
02
0b
0c
0e
f4
fa
00
f0
f7
ef
f6
0a
0b
03
05
04
f7
1b
fa
03
0f
03
f4
00
fe
ec
0a
1d
13
0c
0b
05
fc
fa
f8
04
ed
fb
03
fa
f8
08
f8
fd
0a
0d
07
fe
01
fb
fe
02
fb
f6
f4
fd
fa
f8
fe
03
01
04
0e
0a
08
0f
0e
04
0a
0c
03
fe
fc
f9
fa
f8
fa
f6
fa
fa
f1
f6
f2
f6
f5
f4
05
06
04
01
03
07
09
0b
0e
15
11
08
04
01
02
04
07
07
fc
08
09
f9
05
0a
0d
0d
08
17
10
f6
1b
20
14
10
12
fc
fa
f8
eb
eb
ea
f2
ed
ea
f0
ef
ee
f2
fb
f4
fc
f9
f5
f9
00
fc
f3
04
fd
00
02
04
06
f8
0e
0d
00
fe
05
00
04
07
03
07
05
02
ff
00
07
01
01
05
05
02
0d
0e
07
07
03
fe
00
fb
f2
05
f3
f8
0b
09
02
05
0f
12
f9
f8
fb
fb
fe
01
fd
00
03
06
09
07
f2
f2
f6
ec
e7
ee
07
fd
0a
0a
08
07
20
1f
00
0a
0c
0b
fe
00
03
f0
f0
f7
e6
e7
f2
e8
e7
ef
ec
eb
f6
f8
f9
fd
f9
ff
07
0c
10
08
06
00
05
08
03
07
03
0a
14
fe
00
fd
0a
07
03
0f
10
fe
0c
0d
0d
0a
08
0a
ff
f8
02
07
07
07
06
09
02
03
fc
fd
fd
f6
f6
f3
f6
f0
f9
f7
f4
ff
ff
07
04
fd
00
0e
00
ff
04
0b
06
10
0d
07
0b
11
06
fa
fa
fd
01
fc
fd
08
fa
ef
f5
f2
f5
ff
fc
fc
01
07
05
09
f9
01
13
0c
03
11
13
05
fa
00
06
ff
01
fd
f3
ed
f2
02
05
03
f3
f7
fd
f4
f5
ff
fe
fb
f6
fe
fa
f8
09
05
00
ff
03
fe
08
08
00
08
09
fe
f6
f5
f2
f8
ee
fc
fe
f3
fd
fb
03
03
fa
03
ff
f6
fb
fb
05
05
fd
05
03
f8
00
04
fa
02
13
21
f9
1e
1d
fc
1b
1a
f9
e7
02
f3
e4
04
f1
ee
05
f0
ed
f1
f0
ed
f1
f1
ef
f8
ff
02
fd
f1
04
0c
f3
05
07
0d
02
f8
05
03
f3
fc
03
f4
05
ff
fd
04
04
fb
07
02
fb
07
04
03
05
06
00
03
02
fd
fa
f6
fe
f3
f0
fb
f2
f3
f9
1b
0e
01
1e
0c
fc
1c
06
f7
fc
fd
fc
00
fe
fb
05
00
fe
ea
f1
f6
ed
f6
f7
f8
fc
fc
07
06
00
f3
f1
ef
f0
e9
ee
fd
0c
00
0b
18
08
10
19
0b
e9
e8
ee
e7
e8
ed
e6
e5
ee
fa
fc
ff
fd
04
05
f7
ff
02
fd
02
f9
02
06
f8
01
1a
01
07
03
02
01
fe
fa
00
f6
f4
02
fd
fa
07
01
ff
06
04
02
02
fe
03
01
fd
05
00
ff
03
fd
fc
f2
fc
fd
fd
05
01
0b
03
fe
fb
fd
03
f6
0b
07
f6
0b
0d
09
09
0f
fb
05
03
ef
0b
ff
09
01
09
0d
ff
08
0a
10
0a
ff
1a
05
f7
18
fc
f8
1a
09
06
16
03
ff
12
07
f6
01
f9
ff
05
fd
04
04
fd
05
fc
ff
f0
0a
0e
fc
13
13
02
f3
f0
f2
ed
e7
ec
f2
f4
f6
f8
f3
fa
04
fc
fe
0e
07
07
01
01
ff
fb
fc
f9
fa
fa
f8
00
01
0e
fb
f9
03
f9
fa
03
fe
fe
02
02
03
05
02
06
07
07
00
ff
03
02
06
01
0f
06
0b
10
01
0a
09
06
02
05
06
08
09
07
0e
0e
0f
11
13
13
fd
02
0c
f9
01
05
f9
00
02
fa
f7
00
fa
02
08
ff
01
08
f5
fa
fd
f6
f5
fd
f4
f5
f4
fe
ff
ff
04
03
05
05
03
04
fe
ff
ff
fe
00
fc
fc
fe
fd
fe
03
0a
01
05
0a
00
03
06
f5
ec
f1
f8
ee
f1
01
ff
fe
fb
f6
fd
07
07
0a
07
0e
0d
f0
f4
ee
db
dc
e1
e0
e3
e7
f7
f3
f7
fb
f0
f6
01
fa
ff
19
1a
1b
12
17
17
11
14
16
02
07
12
f4
f9
04
ec
ed
f6
03
ff
ff
03
02
02
00
07
02
f2
ec
eb
ea
ef
ea
f0
f0
f1
ff
00
05
04
06
05
0a
0f
08
fe
00
fb
f9
f9
fa
f6
f5
f7
06
01
04
f5
f0
f5
ec
ed
f2
fb
00
08
fc
fc
ff
07
09
ff
fe
f9
fc
07
0c
05
0c
10
06
fd
03
0a
fb
ff
04
ff
ff
03
08
0a
07
07
05
03
0d
06
01
ea
f2
fa
ee
f3
f9
f2
f1
f6
0b
12
12
05
03
06
ff
fd
04
f7
f9
07
f5
f0
fe
f9
f5
fd
03
fd
fe
00
02
fd
0c
0e
08
f8
f9
f9
01
04
02
07
0e
0c
0c
0e
0d
fe
fa
fc
02
03
03
f0
ed
ec
f0
ec
f0
fb
f8
fa
06
0c
07
0e
0c
0a
0f
12
0a
fa
f1
e7
ff
fe
fd
06
07
12
0d
09
07
03
f3
f2
fd
f6
fa
14
16
10
11
12
0e
0d
0e
0e
fa
fe
fb
f6
f5
f1
fc
f7
f4
fd
f9
f4
04
03
f8
0c
0b
fc
ea
ed
f1
ed
f1
f0
ee
f3
ef
fd
fb
fc
ff
ff
01
fe
02
ff
03
07
0a
00
fd
01
03
01
03
f2
ee
f4
03
ff
f9
02
07
fb
fa
f7
f5
09
06
07
0b
0c
08
fb
02
04
04
12
15
05
0d
17
01
fa
02
f1
f4
f4
f2
f6
f9
f3
f8
fd
f8
02
09
03
0d
12
16
1e
1e
12
15
17
12
18
1b
f5
f6
fa
ef
f0
f6
f5
f5
fc
07
0c
03
10
14
0e
15
1a
19
f4
f4
f3
ff
fa
03
03
06
fd
f3
f1
f0
f3
f2
f3
01
fc
fc
0d
0a
0a
00
fc
fd
ff
fb
fb
e6
e6
e8
e5
e4
e9
ec
ec
eb
07
0b
0c
11
0f
14
1f
1c
14
f6
f6
f2
fa
01
03
02
05
05
f6
f1
eb
fa
f2
f1
fb
f7
f1
fc
f7
01
02
fa
00
f9
fc
fc
e7
e9
f0
f0
ef
eb
fb
fb
f4
0e
0d
0d
00
f7
f5
01
fb
f6
f8
fe
03
fd
05
08
07
0d
16
fc
04
fe
0f
0b
09
06
04
05
07
ff
01
ee
e9
f4
ea
eb
f3
12
13
06
03
05
03
03
03
ff
fc
fa
0c
ef
ec
fe
f6
f5
08
fd
eb
f2
f7
e1
ec
fa
eb
f5
f6
f9
1b
e3
d1
03
ed
d8
0e
06
11
ed
1c
26
08
07
11
f7
0b
0a
08
15
14
11
19
15
14
ff
fb
11
f1
ee
0e
fe
f5
07
fd
f1
01
f1
de
f0
fc
eb
f7
fa
fe
0e
f5
f7
11
f9
f7
10
fa
f9
01
f4
f1
fe
f9
f4
00
03
08
fe
f4
fb
f8
f5
f5
f8
0c
e2
01
f7
c8
f7
fc
da
04
f6
f2
f2
fd
fa
fd
02
ff
06
0b
05
03
01
fa
fa
05
01
fc
0a
05
fa
0b
02
ff
18
0d
0a
08
03
01
ff
fb
00
fc
fc
02
11
12
17
18
12
1d
1f
1d
21
03
04
08
ee
f4
05
f3
f2
fb
f4
ea
03
d3
ce
fa
ea
e5
11
f7
fa
03
fe
f7
fa
03
01
08
f3
f4
f9
f4
f2
f7
fd
ff
0a
f3
f8
ee
fb
fc
f7
f9
f8
f5
1d
15
03
12
0d
06
0a
05
01
f1
f3
10
d6
d5
09
e2
dd
0a
ed
eb
07
e1
d0
f9
e5
db
02
ec
fe
1c
e7
ed
23
f1
f8
21
02
f1
02
f9
e1
00
ff
f0
0f
01
f6
0c
f4
e2
0c
f6
ea
11
ec
f0
ed
00
01
fb
03
03
05
07
00
04
ff
f6
03
fd
fc
05
f8
f8
fe
09
f8
e7
02
f4
f0
f7
f6
fb
f6
fe
02
0b
0c
04
06
e9
f8
fd
0b
f2
11
f8
e0
f6
05
09
09
1c
ff
06
01
f9
00
02
08
f9
0e
14
fb
03
fd
07
0b
0b
1f
20
09
0a
0f
1e
09
12
15
01
fc
fd
f9
f1
00
f2
ef
f5
f2
ed
f0
fe
f2
f8
e9
d3
d8
de
d1
d7
dd
d8
dd
ee
dc
e7
df
e0
ed
da
db
e4
0c
19
29
10
21
1e
13
17
0d
02
06
05
03
06
06
00
00
fe
01
ff
ff
06
f3
f9
f5
f9
04
0c
ff
01
f7
13
18
0b
10
fd
fc
fd
06
fe
04
06
11
10
04
0d
03
0e
04
fa
07
01
09
17
f3
f4
12
08
11
f0
1b
00
e5
01
00
00
00
ff
fa
f9
00
02
ed
ee
fd
f3
f0
fa
f8
f4
02
f8
f4
06
fe
0f
0b
0e
10
fe
10
12
38
25
48
2d
32
20
0d
fc
07
f8
10
05
ec
03
f5
fd
f3
08
0c
f8
16
11
00
07
01
08
0f
0a
0b
09
07
06
ff
09
14
f6
f9
07
04
ef
1b
05
e7
0e
16
0b
17
12
10
11
17
03
12
18
0a
0b
12
10
f2
f3
01
ee
e6
e7
ed
e4
ea
dd
e8
f6
23
13
0f
0e
2b
27
21
1d
0a
ef
e0
ed
de
d9
e9
da
d7
e8
f2
14
0f
fb
18
04
07
f8
fa
0a
f5
f9
f2
ed
02
f6
03
09
12
0f
12
11
0d
10
01
01
01
01
07
02
05
09
08
e9
e5
ec
14
0f
10
f8
e9
f5
e4
e0
e2
fc
fe
fb
fb
fc
ff
f5
f7
f9
04
01
02
03
fe
03
ff
fa
ff
fe
04
05
fe
fe
07
fe
f2
fb
00
fc
02
00
02
fd
02
07
00
11
11
14
06
04
07
e6
e4
e5
fb
05
09
fb
fb
01
f8
f1
f0
fe
02
03
00
fd
ff
fb
f6
f8
fe
fd
f9
fc
f9
f9
f9
fa
fb
00
ff
ff
fd
fb
fb
fc
fb
fb
fc
f9
fd
f6
f6
fc
00
ff
00
0b
06
fb
06
fc
fa
f6
f6
f8
1a
1a
1e
10
0b
0c
e8
e7
e9
fe
ff
ff
08
0a
08
ea
e9
eb
fb
f7
f7
14
04
14
fa
f2
fd
02
07
ff
16
19
15
02
04
00
13
11
14
0f
0d
10
f8
f4
f6
fe
fb
fa
ff
fd
fc
f4
f1
f7
05
07
09
06
00
02
fb
f5
fb
fe
ff
ff
01
fd
04
fa
f9
ff
11
11
12
12
13
15
fd
00
fd
fc
f9
fc
fc
fc
fb
f7
fa
f7
0c
06
0e
ff
f9
03
ee
ef
ef
0f
0d
09
04
03
08
fa
f4
02
fe
fa
fb
f1
eb
f0
f3
ee
f6
f9
ff
03
f8
fa
04
f5
f0
f7
0a
fc
f9
02
f5
f7
ed
f0
f1
fa
fa
f7
f7
f4
fa
fb
f8
fe
09
0a
0e
11
11
10
ec
f1
eb
0c
0c
0b
0f
13
10
f3
f5
f7
ec
ec
f4
f9
f4
f7
ff
ff
f9
0b
0a
0e
ff
fa
03
f6
fc
fd
f1
ed
e9
f4
e9
e8
f8
03
fd
08
fb
f4
09
f9
fd
0e
07
08
02
f9
00
03
f3
f5
08
fa
00
15
04
f1
1b
fb
f1
0f
07
f4
f6
fe
fa
01
0d
06
07
07
00
02
ff
ff
02
fa
f8
03
01
fc
f2
ed
fb
0a
f3
ee
15
13
f9
fb
f4
09
06
ec
f4
0f
f9
f8
08
fe
f9
08
fd
fc
03
02
00
03
fb
fc
fe
f8
f9
03
fb
fd
f8
03
07
00
02
08
04
02
fd
01
f9
04
fe
ef
02
fe
f8
0e
0b
01
08
04
fa
fd
01
00
ff
fe
fc
fc
fe
fa
f9
fc
f8
f8
19
16
1a
0e
02
09
fa
f7
f1
fe
f6
f3
08
fe
00
05
05
07
04
ff
fe
06
02
00
0b
09
06
fb
fe
00
08
03
03
0f
12
0b
01
fb
fc
09
e6
ed
0c
f5
f3
02
f3
f6
fd
ec
ef
fd
f7
f5
0e
f8
f9
0b
f6
f5
0e
01
ff
fb
fc
f8
fd
01
fe
02
05
00
f4
f8
f4
f9
eb
e9
04
00
f8
f8
fb
01
f9
f0
fd
01
01
fb
02
f4
f3
fa
e8
ed
02
f2
fb
f8
f6
fe
06
f1
f2
12
13
fd
fd
f3
e9
f4
ed
f1
f3
f9
0e
f4
01
21
f8
f9
17
fc
fb
01
01
f5
ee
05
fc
f6
0d
0b
02
f8
f2
ef
02
f5
fa
01
ff
06
f7
05
0e
fa
04
09
00
fe
05
fe
f7
f5
04
f2
ef
06
f5
f0
e9
f4
02
dc
f3
02
f2
02
0a
fe
07
05
fd
05
04
ff
06
05
fb
f8
f7
fe
f7
f9
fd
f8
fa
25
13
ff
36
11
00
3c
0e
fb
03
12
10
fc
0f
0f
f7
05
06
04
ff
00
04
fd
01
05
00
03
07
fd
ff
08
f7
02
0c
01
05
00
f6
f5
03
f2
f3
05
f4
f5
ff
fd
f4
fc
fc
f7
fe
f8
f6
03
fd
f6
03
fb
f7
04
fc
f9
01
05
07
00
06
01
02
09
04
01
f7
eb
ff
f2
ed
fa
f6
ef
06
01
ff
06
fb
f8
fe
fb
fb
0e
00
fa
1b
02
f7
24
0c
fc
f2
09
10
ec
00
08
f3
fd
0a
fe
fd
01
09
fb
f9
17
fd
f5
fc
fd
01
fe
fc
03
02
04
05
04
06
06
ff
02
ff
fe
01
04
ed
fd
f2
f1
f7
f4
07
f6
ed
fc
fa
f4
fa
f6
f3
02
fc
fa
fd
fe
04
fb
00
04
f9
fd
01
01
01
01
fe
01
00
f9
ff
fc
f2
f6
ff
e9
f3
02
f8
02
06
05
ff
ff
fa
f7
fa
f8
f6
f6
0c
fc
ec
15
f9
ed
16
f4
eb
0e
01
fd
11
02
fe
12
ff
fe
f8
fb
f3
f3
fb
f5
f2
fe
fa
fd
f7
f6
fb
f5
f2
fa
fd
f6
f5
fe
02
f1
fa
04
ed
f3
fa
01
f6
f7
07
f6
f4
0b
f5
f2
f5
f0
ff
f9
f9
fe
15
27
2a
fc
fd
f9
fa
fa
f7
ff
fb
f6
f5
f8
06
e5
e3
f6
fe
07
08
fa
f9
f8
f6
fa
f9
fa
f5
fa
fb
02
fb
ff
03
fe
fb
fa
f8
12
fc
fa
1c
0f
0d
0d
e9
f7
f9
f9
01
fb
fc
01
f7
fb
fe
00
00
fe
05
06
03
0d
09
07
01
0a
03
fd
04
01
0c
03
f7
03
0d
fd
0e
11
06
09
01
f6
09
09
07
0b
0c
04
01
ff
fd
0a
07
02
0a
0d
08
00
02
02
fe
fe
01
f8
fb
04
fc
ff
01
fd
03
fd
12
0f
09
fc
ee
f4
fe
04
03
f9
f7
f6
0d
0d
0d
fc
fe
06
fe
02
0b
f8
fb
04
04
04
0d
d1
d0
e8
fa
12
1d
f4
fc
fe
f6
fe
02
f3
fc
03
05
01
05
06
fe
00
09
04
02
06
08
08
f9
ff
00
f6
f9
f9
eb
d5
e6
da
d9
f2
0d
02
1a
f7
03
02
05
0a
0b
f8
09
09
fe
05
04
f8
ff
fc
fd
01
01
ff
fe
03
fc
fa
fd
fc
fb
ff
e4
eb
f7
db
df
ef
05
1c
19
fb
ee
f0
d8
cd
e5
0a
fa
0d
1c
0d
07
1e
1b
19
fe
f7
05
19
fa
00
1b
ff
08
0c
ee
ef
00
fc
0b
0c
fc
0d
01
fb
11
0d
f4
f7
18
01
0d
0b
f5
fa
07
06
06
02
f9
fd
0a
04
00
05
05
0a
fe
fe
05
f8
04
02
f7
f6
f5
0c
07
06
1b
1c
18
09
08
07
0a
0b
09
02
06
04
ef
e8
ef
ef
ec
f1
02
fe
fb
00
ff
ff
03
03
00
06
08
08
fc
fa
f8
fc
fb
f7
ff
fd
fc
ec
ef
01
e9
eb
fb
f1
f3
01
fa
fc
fd
ff
02
01
07
09
07
f6
f7
f5
f9
fa
fc
fc
fd
fd
f3
f5
ff
f6
f5
f9
02
fc
fa
f8
f6
f8
fd
f7
f6
fe
fe
f8
00
fa
f9
ff
fb
fb
00
fb
fb
02
fd
fd
ff
fa
fd
fd
fb
fd
f9
f8
fd
f8
fb
fa
fe
ff
fe
fe
f0
ee
f7
ee
eb
fd
f5
f7
00
fe
fc
fe
fc
fd
fe
00
02
02
02
06
02
04
06
f5
fa
fa
ee
eb
ed
04
fd
fc
1e
1b
19
0d
10
0e
0d
11
10
0a
0e
0f
f7
f8
fc
fd
fd
ff
fe
fe
fc
02
03
03
ff
00
03
01
fe
ff
f3
f0
f7
f5
ec
f1
ff
fc
04
f9
f5
f7
00
fa
fb
01
05
01
00
02
02
03
00
01
ff
01
ff
00
ff
00
00
00
ff
ff
01
01
f9
ef
f6
f4
f0
f6
02
01
ff
fd
f4
f6
f1
f2
f3
fb
f4
f8
fb
f3
f9
f5
f3
fc
f3
f6
f7
f6
f9
06
f5
f6
01
ff
fd
00
06
f8
f5
fd
f8
f4
fd
fc
ff
fd
f7
f9
00
fd
f9
0f
0c
04
03
03
05
0a
06
0a
07
0a
07
0f
0d
0c
0c
0e
10
fe
04
00
1e
16
03
15
0a
fd
fe
fb
fb
09
08
fe
03
01
f8
fa
fc
f6
0f
09
f1
fd
fe
ed
09
08
f3
fd
fc
f9
04
ff
fc
02
fd
ff
04
01
f9
f8
fa
fb
fb
fc
fe
07
1c
f9
05
13
f6
f3
02
fa
01
04
00
02
02
fb
ff
01
fa
01
00
f1
03
ff
f9
07
07
fd
0b
0d
f4
00
fd
f5
02
08
ff
0c
0b
fa
03
fe
fa
f8
fa
03
fa
f9
f6
fa
fd
f9
f8
fc
fe
ff
01
fe
ff
00
ff
fb
fd
fe
07
03
fd
04
f9
fb
f9
fa
f6
14
04
fa
00
fc
04
f5
fc
02
03
03
f6
06
02
f9
00
02
fa
0a
0b
f9
f8
f6
e9
f4
f2
e9
0f
0b
f9
24
18
e3
f1
ea
f0
07
0b
ff
ff
fe
f4
f7
f6
f2
fc
fa
f2
fc
fc
f1
00
ff
f7
06
02
00
fe
fe
fe
ff
f9
fc
09
01
05
02
15
fd
fb
f2
00
10
12
f7
09
fe
f2
f9
02
f9
fd
f7
f0
02
fd
fc
03
00
03
fb
fc
01
fb
ff
00
ff
00
02
15
09
ee
ff
f4
ea
04
00
f3
fe
02
f4
07
fb
ff
f2
ff
04
03
0e
fd
00
03
03
ee
ff
02
0a
09
f7
03
02
fa
fa
05
ff
14
03
fc
03
fe
fd
00
06
fc
1d
03
0f
0d
fb
08
fa
fa
04
ef
f3
f2
fe
00
05
03
06
0c
0b
04
fd
f7
f7
f2
f6
f7
ed
f7
04
18
05
07
0c
07
03
ff
fc
f9
f8
13
fe
f5
14
00
f9
f7
f2
f7
e8
f9
09
f9
f7
00
05
0f
0f
fb
08
12
f4
ff
05
f3
f7
ff
e8
ed
ef
f2
f8
f5
09
fc
0e
20
12
0c
0c
0f
0e
03
f4
03
f8
ef
0e
08
f8
0a
12
fc
fa
14
ff
fc
13
03
06
1e
0f
09
14
17
0e
05
13
1c
f3
f6
f8
e8
e8
e8
ef
f0
f1
05
02
03
fd
fa
fe
fd
f7
fa
01
fe
fe
f9
f7
f9
fc
f9
fa
fd
fa
08
fa
fb
04
fd
fc
02
ec
ef
f1
dc
e3
de
e6
ed
e0
01
f8
ee
15
fc
f2
0d
ff
fb
fb
ee
02
0a
f5
f5
0c
fd
03
e7
ef
0a
f4
fa
14
04
00
08
00
0a
1e
08
06
0c
0f
03
01
09
00
06
05
ff
09
04
fc
09
07
0a
04
fe
0d
16
f7
08
19
ec
f8
03
06
06
f4
0a
09
fe
e6
f2
01
f5
ec
f0
fc
fa
f6
fb
f8
f9
fa
fd
fb
fc
f9
fb
07
ff
04
02
02
04
01
fe
03
07
fd
09
0d
14
14
0e
0d
1b
12
0c
14
0d
12
05
03
05
f6
fd
f9
fc
f2
ec
e6
f7
f1
e3
24
10
07
25
1c
02
11
16
10
e1
e9
ee
d1
d7
d7
e2
dc
d6
fb
fd
fb
f2
f3
e3
ef
fa
ea
06
03
06
f4
fc
05
f8
f6
02
f6
fa
0a
fb
f0
f5
fe
f5
f8
07
0c
15
16
0f
fb
02
0a
08
06
05
01
fd
fd
f8
05
fd
fd
03
04
0b
04
11
19
17
0b
fd
0a
14
14
0e
0a
00
05
f9
f5
fc
f9
fd
fe
fa
fb
04
01
04
00
05
0e
02
fa
fd
fc
f4
fa
ee
e8
fb
f6
ef
f3
1c
0f
0f
09
03
fe
f9
fd
03
06
01
00
fa
f6
fa
e5
e4
f5
f2
f3
ed
ec
e4
ef
f3
e9
ef
f8
ed
f8
fd
f9
fe
f9
f4
f9
f5
f6
fa
fc
f8
fc
f5
f0
f6
f9
f6
f8
fd
00
09
00
f3
fa
0f
0e
10
01
f7
fc
f6
fb
00
0b
fe
05
04
01
ff
fc
ff
fc
02
fe
fc
0b
ff
01
fe
f6
00
f7
f6
03
eb
07
1a
23
16
f1
05
07
10
04
05
08
02
f7
f3
f3
f6
00
10
0f
12
0b
08
0c
0b
0a
09
08
0a
09
02
0f
15
0a
00
f5
10
12
18
25
1d
21
19
09
0a
f9
f6
04
07
f8
ec
f5
f6
04
ff
fe
fd
f6
f1
f3
ef
ee
f0
03
03
07
08
01
06
0b
0c
0b
0d
07
fc
f9
04
11
10
05
f4
1c
22
23
03
fd
01
12
13
0f
f3
e5
ef
df
d3
df
ed
df
e5
fc
f9
f9
ea
e5
f8
f3
f0
f0
03
f9
f8
f2
01
05
0c
00
f8
ea
e6
ea
ec
df
df
f2
ea
f4
fe
02
07
fe
fe
f7
09
04
ff
09
fc
fb
f7
fb
0e
fb
fd
04
0d
1c
19
0b
1f
1d
fd
0e
09
fa
fe
07
fe
05
06
f7
02
03
18
37
30
01
17
11
2b
45
40
ff
00
fc
fe
fa
ff
04
00
00
f9
f9
f5
fc
f8
f3
fb
fb
f7
0b
02
03
0a
fc
03
08
f6
fd
02
0d
05
fa
08
ff
f2
00
f2
fb
00
ff
ee
f6
f4
fb
02
03
07
12
15
f8
03
10
0d
15
16
ef
f9
fe
f8
fb
ff
fb
04
09
fc
f9
f5
ff
ff
fb
05
04
01
fb
fa
f6
fe
ff
fa
05
02
02
f7
01
f9
fb
fe
fb
f4
fc
f8
07
01
ff
0b
fe
fa
09
fb
01
f7
f9
f8
f4
fd
fe
ef
f7
f5
ff
0b
06
01
0b
09
09
13
09
f1
04
fe
ee
0a
fc
ef
0a
fd
00
03
ff
ff
07
fd
fc
ff
fa
f8
fa
fa
f7
f4
f8
fe
01
01
f0
f9
f9
f9
00
00
00
07
05
08
06
ff
f7
f0
eb
ee
eb
f3
08
13
07
0c
1e
15
03
0f
04
05
05
03
03
02
02
08
01
07
01
01
00
fc
00
fd
f9
fb
fc
ed
02
fe
e0
00
f0
fa
0a
0c
00
fd
f5
f8
f9
02
f4
ed
f3
f5
f1
f1
fd
f9
fd
0f
04
03
00
fe
06
f8
fc
06
04
01
0a
0f
0e
05
0c
08
f8
08
02
03
f7
f9
06
06
fd
08
fc
fd
0c
09
05
04
01
02
ff
05
01
ff
f0
f7
fc
ee
f8
fd
02
05
0b
ef
f2
f4
f0
ee
ef
ef
f6
f3
f7
fd
01
fa
fe
00
09
04
0d
01
03
04
07
02
ff
fe
ff
01
07
0a
07
06
08
07
08
05
0a
01
0b
02
09
02
0a
07
01
0c
03
e9
fc
f3
f4
ee
01
0d
f6
ea
e5
ea
f0
ec
f0
f5
f1
f4
f7
f9
fa
fa
f9
ff
03
05
06
f9
fd
0b
fa
00
fd
00
03
fb
02
0d
00
08
ff
0d
09
fe
0d
00
00
07
fe
02
04
01
02
02
04
07
01
09
0b
08
09
03
0a
03
02
05
ff
ff
02
fd
f7
fd
f6
0e
f6
03
f2
ff
09
f7
14
fb
01
07
00
ff
05
0b
00
0a
08
07
0b
fc
f8
ff
fa
f8
fb
ec
02
04
e3
e4
e2
ee
ff
f7
fb
f9
f8
f8
f4
f3
f3
f4
f1
06
0d
0a
05
05
04
06
0a
09
06
0d
0b
06
0f
0c
07
0a
0a
16
04
0e
11
0a
12
01
09
02
ef
f7
ee
f1
f5
ee
f4
f5
fe
f8
ff
00
f6
f9
f7
fc
fc
fa
fb
fb
f8
f9
f9
fa
f9
f9
fa
04
0a
0b
10
01
06
0e
0d
0b
03
09
04
10
0f
0c
14
03
06
11
1b
fc
1b
1d
0c
20
0d
1d
00
f5
01
fc
ff
f9
0b
fd
fd
fe
08
fa
0c
f6
f9
09
03
0c
f8
f5
f7
ed
eb
ed
f3
f9
eb
eb
f1
f2
ef
f1
ef
f7
f5
f5
12
0f
10
07
04
02
00
fa
fd
1b
1a
1b
15
13
16
ff
05
04
06
01
06
01
01
02
03
03
03
18
18
1c
14
17
20
13
15
18
0a
09
0f
03
07
0b
f7
f7
fb
fb
f6
f7
f7
f2
f4
fc
f5
f6
f8
d5
e2
f0
d2
dc
f5
e5
e9
06
07
07
f3
f5
f9
e4
e6
ed
06
07
01
06
07
07
06
0b
08
0c
f6
f6
08
f6
f7
08
fd
02
00
f2
f1
f8
e8
ea
02
f7
f1
e9
f3
fd
ea
ed
f6
e9
ea
f5
f6
f7
fd
f3
f4
f7
f9
f8
f8
07
01
06
04
00
05
05
05
06
de
dd
f2
e1
d7
ea
f6
e9
f6
07
05
07
fe
01
00
05
08
05
0e
05
03
05
ff
01
12
0c
10
1c
0d
18
11
14
1a
12
14
19
06
fd
fe
06
00
01
fe
f7
fc
03
07
06
09
0a
09
04
09
05
07
04
0c
0e
09
0f
07
04
07
f1
ea
ed
df
df
e3
eb
e6
ed
0d
0c
12
04
fc
04
08
03
04
06
0e
0e
0b
11
11
ff
02
05
09
0b
0a
00
05
02
f6
fa
fa
0f
0f
0e
1c
11
16
15
11
1c
f4
fb
05
f5
f0
fa
f0
ef
f6
ee
eb
f4
eb
df
e5
f9
ea
ee
f5
e7
ea
f3
e9
ea
f9
f1
f3
eb
ee
fe
ee
e8
f7
f5
ef
fc
fa
ed
f9
f4
e8
f4
fb
ef
f6
0f
1c
11
0e
18
11
f5
fd
f8
01
fb
01
0a
03
0a
04
00
06
02
01
0e
fe
ff
14
fd
01
0f
fc
fc
08
f7
fd
08
fb
ff
03
00
04
13
fc
04
1a
08
0d
0d
ff
fd
0f
f7
fc
13
f7
08
0c
f4
f2
fc
ef
f1
06
f4
f9
0c
f5
e4
0a
e3
e8
17
e8
0b
16
07
15
00
0f
14
f8
0f
0d
ec
03
04
02
02
01
fe
05
01
fc
fb
f7
ff
f7
eb
f2
fd
f0
fa
f1
ef
ed
ea
e5
eb
ed
e8
f1
fa
fa
0f
f9
00
17
fb
0f
19
fa
fc
01
f3
fd
02
f7
04
06
03
05
05
ff
03
02
04
06
ff
f1
e7
01
e1
e9
0d
eb
05
0c
fd
01
08
f8
fc
03
fe
07
05
07
fd
04
fc
f9
02
05
ff
09
02
f7
09
f3
f5
1d
ed
05
17
07
ff
09
ff
fc
06
fc
ff
07
07
fd
03
02
fe
01
02
fe
02
fe
02
0d
fb
fc
05
f5
fd
03
e8
e3
0f
e0
f7
2b
f4
1c
24
fb
00
0f
f1
0a
11
01
16
0c
06
01
05
02
03
08
03
04
08
00
01
fb
ff
00
fb
fd
fe
fa
01
fb
07
f7
f4
07
04
02
08
ef
e9
02
dd
f5
16
f0
0c
1b
f3
f6
07
e0
fe
0e
e7
0c
13
f6
f8
01
ed
f4
f8
f6
03
fa
f6
ee
0f
ef
f6
26
fb
17
20
f7
f3
00
ec
e7
fe
ef
f0
fd
04
01
02
ff
fd
f9
f8
f7
f4
04
f7
06
f9
ef
03
ff
f9
0a
e6
de
df
e7
d0
d8
fb
f4
f8
04
fc
fe
fd
ff
fd
f3
f7
f8
de
d0
dd
e9
d7
e8
fc
f7
fb
f2
f1
f8
f9
f1
fe
0c
07
13
fe
f1
f6
04
ea
e9
17
09
03
f8
eb
f1
f7
da
eb
10
07
1a
0e
14
0c
04
0c
00
02
07
01
16
16
15
18
0e
10
1c
19
11
f2
e1
ee
0e
e3
de
25
06
f5
fe
ef
fc
08
e4
e5
26
0d
fd
00
f5
fa
03
fb
fe
0e
0f
0f
fc
f8
fd
fa
f2
fa
05
02
05
06
06
05
ff
fd
ff
09
06
06
f5
e8
f6
fb
df
fa
19
14
19
06
fb
03
0a
00
05
09
0f
0f
0b
06
04
fc
ff
fe
03
09
07
06
fa
fe
fb
db
ee
02
e4
02
0d
0d
09
08
0e
0d
fb
03
0b
1a
15
15
1a
11
10
27
20
20
ee
ea
f5
fb
f3
f6
0b
02
00
e1
db
f0
f1
d5
ea
1e
1a
0b
f4
e8
f3
eb
dc
e8
0a
02
10
fd
fc
fd
fb
f5
fc
0b
03
03
f9
f9
f9
f8
fe
f9
f8
fb
f8
f5
e9
f8
0b
ed
ff
11
0a
0b
ea
e8
ea
e6
d5
ea
06
02
14
f3
e3
f5
e6
d6
ea
03
fc
10
ee
ed
01
01
e9
f6
20
12
0f
f3
eb
f7
e9
e9
0c
f6
03
1e
f7
f5
09
fc
ea
fb
14
f7
f9
f9
fb
f8
fc
fc
f6
04
00
f9
02
fd
fd
ff
01
06
fa
02
0a
fb
f2
f3
fc
e1
de
13
f3
f0
0f
07
0d
0b
fb
fe
00
f0
f8
0e
f3
e6
02
e8
da
16
f2
ec
02
ff
04
f6
f6
f3
f0
02
fa
f9
01
21
f8
f7
1d
fc
fc
1b
fd
00
04
ea
13
02
e2
23
12
15
f4
f5
11
f3
f7
10
fb
fa
f9
fa
0a
f7
f8
09
fe
fb
0b
f5
f9
03
f3
ed
0c
03
ee
12
f1
01
1e
f7
fa
30
05
fc
2e
06
0c
19
06
09
1a
fc
00
0c
ff
05
09
01
08
0f
ff
04
10
03
fe
fb
01
f7
f7
02
f5
fa
ed
ec
1e
ed
e9
23
f3
fa
35
14
02
0e
00
ef
f7
f9
f1
f9
0c
f7
00
0f
fd
03
0b
fd
fe
0d
02
fe
10
f5
eb
1b
ec
e9
0c
f6
f9
05
f5
f3
fe
f4
f4
f2
ff
0a
f1
01
0a
f4
05
0c
0c
04
05
07
fd
fd
ff
f3
ef
f8
0e
0c
e7
f3
ed
ef
f0
fc
ff
02
f8
03
fc
f4
0f
02
fc
06
06
0c
05
03
00
ff
ff
03
02
fd
fb
02
fe
ff
05
ff
01
1a
f6
f2
1a
f0
ec
28
ea
ed
f9
27
10
dc
05
e9
e0
f4
dd
04
21
12
06
2d
23
08
24
22
f6
13
f2
ef
18
ee
f8
14
00
ff
f6
fe
fc
06
ee
fb
14
fd
ee
03
f7
f4
08
eb
ff
0c
00
f9
07
09
fa
02
04
fe
02
07
19
04
fb
14
fe
f9
11
f7
f9
fc
00
f9
f5
f9
fd
f3
f1
ff
01
fb
07
07
fe
f9
13
04
05
f8
f6
f9
f5
f4
f4
01
00
f6
fb
ff
01
f9
f4
fa
fd
fb
fc
15
20
11
0e
12
1f
06
13
1d
e9
ec
05
f2
f7
f7
fb
ff
f7
f6
fa
fc
0a
02
f9
09
0e
01
fb
f7
f9
fa
f9
f9
fb
f9
fd
17
02
f6
09
22
fd
00
0a
15
16
1e
fd
0b
0a
0c
fb
01
12
f5
04
02
f1
fa
02
ed
f2
fc
f9
fd
00
f8
f4
fa
f6
f8
fc
10
03
ff
0c
16
fc
11
11
10
03
05
06
f5
fa
fd
f5
f7
ff
f3
f6
fa
fd
f8
fb
fe
fe
04
ff
e9
f7
0d
f4
e7
13
00
f0
f4
fa
fc
f0
f7
f6
ee
f6
07
0b
01
16
0d
f7
fe
1a
ff
f1
07
f9
ff
fd
f9
fc
ff
f9
ff
02
fa
fc
04
f8
f7
fd
fd
fc
18
2a
19
17
18
32
0c
21
2f
f4
f8
ff
f2
f1
03
f3
f1
f9
f3
f0
f3
f7
f0
f2
fa
f3
f2
02
fd
01
03
00
03
04
03
00
09
09
04
f7
07
05
00
00
fe
45
2c
1f
2d
4b
2d
2e
3b
4b
f0
eb
f9
e2
e0
e6
e7
e9
e7
10
fe
00
06
15
00
00
07
0e
da
e7
f7
de
dc
ea
ed
ea
e7
0f
11
f8
fd
0e
09
f9
fc
0f
03
00
05
03
ff
03
08
ff
07
05
fc
07
07
eb
f4
12
ee
ec
f7
05
13
e2
e9
0a
f5
f9
0d
06
00
05
04
03
01
08
02
00
f8
fb
0b
e1
e8
09
e9
eb
0d
05
02
f8
05
ff
f7
04
fd
f4
00
0a
00
f8
05
fe
fc
05
fa
11
00
f3
0d
10
ea
16
16
fa
ef
f3
02
ed
eb
fd
f4
ef
00
fe
fe
05
fa
fd
01
00
01
06
fe
07
0d
f7
06
10
ff
01
0c
fc
0f
0b
f9
11
0b
09
12
08
02
fe
f9
05
ff
f7
02
fc
f7
06
00
ff
08
08
00
08
07
00
fc
03
03
f1
fe
05
ef
f7
07
09
0a
fc
09
09
f1
11
1d
f4
fe
fc
02
ff
f8
fc
ff
fb
fa
fe
00
09
fa
ff
06
ff
00
0a
f5
0a
0f
da
ed
1c
ce
d7
0d
00
01
04
f9
fb
04
fd
ff
04
fe
fb
f8
fe
f9
f7
fd
f5
f3
02
ff
00
fe
fe
fc
fd
fa
f9
2a
28
14
f4
f8
f6
df
f1
f8
f5
f6
0b
f2
f1
01
fd
fb
06
0c
0a
07
07
04
02
fb
fa
f7
ff
00
01
ff
fe
02
00
01
04
f0
fc
13
df
f2
11
e2
e8
11
22
21
05
f1
0c
05
dd
e8
f5
14
fa
f6
1a
0d
fb
1b
10
09
09
ff
fb
0d
0a
02
18
05
fd
0d
f9
f6
0c
f6
f5
0b
04
fb
f8
03
ff
00
ff
01
11
07
00
08
06
03
05
03
02
ff
fc
fb
fe
f9
08
fb
f6
02
f5
f7
00
f6
f3
fe
ee
ee
f7
f1
ee
fb
06
04
0d
08
fd
01
00
fa
fe
f5
e6
f5
ed
de
f2
fd
f7
f7
0c
0b
01
08
0c
fe
07
13
ff
ff
fe
06
fe
fa
08
fd
00
0c
18
ee
fc
05
f9
ec
01
1a
f0
f3
ed
fb
f3
e7
fa
fe
f2
f8
f7
f7
fb
f6
f7
fe
f2
f2
f5
01
f7
02
f6
f6
fd
ff
15
05
00
03
15
05
03
1b
01
0d
1f
05
05
09
04
0b
0a
0a
14
0d
00
01
03
04
01
05
01
08
06
fd
f2
07
f7
ef
f6
03
03
00
00
01
08
fe
f8
07
ff
00
1a
00
f9
ff
fb
f6
fa
f5
ee
f2
09
01
07
05
fe
ff
11
0e
0d
f8
f2
06
f1
eb
f9
0b
ff
1e
09
05
fe
04
05
fd
08
0f
05
fb
f7
f9
f9
f8
f7
fa
fc
fa
07
f8
fc
04
f9
fa
05
06
fb
0d
ed
ff
fe
e8
fe
01
fe
f8
fb
f6
02
00
f5
03
05
04
12
00
0a
06
ff
0e
07
04
0f
0d
01
05
03
07
0b
06
0a
09
09
fe
ec
f9
f2
e6
fd
ff
f7
fc
0d
02
05
fa
f7
f2
f9
0a
f0
0a
04
06
0d
04
06
0a
14
05
05
f8
02
02
fa
fb
02
1b
f5
fe
f2
f1
fd
ef
ec
05
fa
f8
01
09
0a
00
fe
fb
fd
06
10
06
19
02
0d
22
0f
11
1e
13
0b
03
fe
05
03
fb
04
09
05
f3
f2
f0
ff
f9
02
0f
0d
0d
f4
f3
f1
08
0b
10
10
16
16
ee
ee
f4
0c
09
0b
0f
10
0b
00
fd
fd
0b
0b
12
10
14
20
f1
ee
f1
05
fb
fd
04
01
ff
f2
e3
e5
01
f3
13
f2
f7
11
fc
f8
f9
0b
06
05
05
00
fe
e4
e4
e8
08
04
07
08
09
06
fc
f2
ef
14
fe
f4
06
fe
f3
e5
e1
ea
08
f8
f7
0d
fb
f0
fd
f5
f6
04
fe
04
04
06
08
f5
f5
f8
ff
fc
05
00
ff
02
fc
fc
fa
0a
0b
09
06
02
00
e7
e6
f3
02
01
0e
03
fd
03
f1
ef
f4
02
05
0e
16
20
19
dc
e0
de
0d
16
13
09
10
10
ed
e7
e7
0e
fe
15
05
fe
0b
f0
ef
ed
06
07
0c
09
0d
10
cd
ce
ce
fa
fb
fc
fd
00
00
0c
08
06
15
0f
0b
0c
05
0a
e7
e3
eb
fa
f0
fa
ff
ff
fb
ed
e6
f0
03
f9
0d
06
0c
0d
f7
f3
f6
01
03
04
0d
11
13
06
05
08
0b
08
09
08
06
04
f7
f4
f9
09
04
09
0d
0d
0a
ee
e9
eb
fb
01
0c
f9
09
04
e1
d9
e5
fa
f6
14
fe
08
0f
f8
f0
f4
08
ff
02
07
01
02
f1
ef
03
fb
0b
1f
f8
06
0e
f6
f9
fb
11
08
08
14
00
ff
ef
ee
f6
0a
08
0f
0f
16
16
e6
ea
e7
0c
13
13
08
0e
0a
0e
00
f9
07
fd
02
fd
ff
0b
fa
f9
08
f4
fd
14
ee
fc
14
fd
fe
00
0c
01
f7
21
00
fd
0d
fe
fb
0b
f8
f4
02
f4
f4
04
07
07
fc
06
07
05
ff
01
e9
eb
f0
e1
ed
e8
e2
ed
ee
0a
f4
08
0f
f0
f8
0d
f4
03
f8
fb
0b
f5
f9
0b
fc
f6
07
ee
ec
e7
e1
dd
e4
de
df
f0
06
08
07
fd
02
01
03
f9
01
00
f7
01
02
fd
fc
05
01
ff
fc
fc
02
f8
fb
00
fc
f9
fc
03
f0
fa
03
f3
f9
04
fe
03
09
13
2a
19
1e
21
29
11
07
f3
f9
07
f7
ff
0f
f7
fc
03
f6
ef
08
ef
f2
12
f7
f9
16
09
f2
f6
05
f2
f9
fd
fb
13
00
f9
ff
f6
f5
00
f8
fd
07
10
05
0e
0a
fe
09
0e
01
0c
15
03
f5
12
f7
f1
0f
f1
f3
07
05
fb
fd
0a
fa
01
00
f8
f7
ed
f0
ee
e8
f4
f7
f0
fb
fa
f8
ff
fe
fb
ff
04
01
00
00
fb
00
03
f9
fd
04
fa
ff
fb
ff
fd
06
07
ff
16
fd
fe
ff
f5
f4
f2
fb
f6
f6
05
fc
ee
ec
fb
e4
e5
f6
ed
ec
f8
ef
ed
e8
e7
e1
e1
e1
e0
ed
11
0e
28
26
1b
1c
37
17
04
14
00
08
16
fd
f8
18
f3
f5
0a
02
09
0c
fb
f7
10
f4
f0
04
00
09
fe
04
13
09
0d
10
fd
fd
ff
05
00
00
00
01
01
05
03
04
05
06
03
07
03
05
02
01
ff
00
fe
fe
02
01
00
ff
01
ff
ff
fe
00
00
fd
ff
fe
ff
fe
ff
01
ff
fe
03
fe
fd
fb
fd
fc
fc
fe
fe
fd
00
02
fe
fe
ff
00
fd
00
01
00
05
05
04
03
05
01
ff
00
03
ff
ff
00
01
00
ff
fd
ff
ff
fe
01
fd
01
00
ff
00
05
ff
ff
00
fe
fe
00
02
01
01
00
00
ff
ff
01
fe
ff
fe
02
ff
fd
fd
01
fe
ff
fd
01
00
fe
fe
ff
fe
fe
00
00
02
05
00
05
09
08
05
08
06
00
05
05
fb
fa
fa
fe
fc
fe
01
fb
fd
ff
fe
00
0c
02
03
09
01
00
ff
fe
fc
ff
fb
fd
01
00
fc
fc
fc
fc
fc
fd
fc
fd
fa
fc
01
00
01
fe
fe
fe
ff
01
ff
ff
fe
fe
06
02
fe
01
03
00
fe
ff
ff
03
05
04
fe
03
ff
fe
01
ff
01
ff
00
ff
fc
fe
ff
02
00
02
00
02
ff
02
01
04
03
01
ff
fe
01
fe
fd
01
ff
02
fe
fe
fd
fd
01
fd
01
fb
fd
fd
fb
fe
ff
fd
00
fe
00
ff
fd
fe
fe
fd
fe
fe
fd
01
fe
ff
fe
ff
fe
01
ff
00
fc
fe
ff
03
01
02
08
04
ff
02
01
00
00
03
00
fb
fe
fc
fd
fb
fb
fc
f9
f9
fc
fe
fc
f4
f7
f9
0e
16
13
f7
f9
f6
f8
00
ff
01
07
08
ee
f5
f6
f5
06
02
0e
17
10
ff
08
04
f7
02
ff
ff
07
07
f7
04
ff
fb
01
00
03
0e
08
fa
ff
01
fd
f8
f5
09
00
07
ef
f2
e6
f5
00
fc
09
1a
11
ef
fc
f9
02
17
0f
15
2b
25
ed
00
fe
fd
05
00
0e
0c
0b
f8
fe
fe
fb
05
0b
0a
14
10
f5
02
04
ff
fa
02
02
fc
06
02
fa
02
00
02
06
06
09
0a
ff
03
06
f6
00
f8
02
08
08
fb
ff
fe
ef
fa
f4
02
0d
fe
f0
f6
f7
fa
07
04
ff
10
13
f1
fd
fe
f5
01
fa
0b
19
0d
f2
f7
ef
e2
f1
f2
07
14
0c
e8
f5
e3
f8
02
fd
06
0c
09
fe
ff
fa
f6
0e
08
0c
25
20
e7
fd
f9
ef
f7
f4
f9
02
fd
fa
08
fe
e2
dc
eb
f8
fa
fe
d4
e0
de
02
09
0b
1a
24
20
fd
03
00
fa
02
02
02
03
06
fd
03
05
fb
03
fe
ff
06
01
f7
fb
fa
ea
f5
f2
ee
f7
f2
e1
e8
e5
ed
fa
f0
f4
f6
01
e8
e3
e9
fe
0c
0f
0c
1a
1a
fe
0d
0d
fb
03
06
04
03
0d
f3
fa
ff
f8
03
fc
05
13
07
f6
fe
fb
fc
fc
fd
0b
0b
07
00
04
01
f1
0a
07
f8
12
0e
de
fb
f6
f5
fe
01
02
07
0b
fc
fe
01
05
0c
13
03
02
02
08
fc
04
02
00
04
08
ff
ff
00
f3
f3
04
02
0b
f5
fb
05
06
04
01
04
08
fe
02
08
f8
02
04
ff
f5
f6
fc
f7
fb
0e
fa
0b
0b
fa
f6
e0
ff
ff
e9
03
08
15
02
fa
ff
fc
f0
fb
fc
f3
fd
02
fc
01
fd
f9
fd
00
fb
ff
fa
f0
ff
f5
f1
08
fb
00
0a
f5
eb
f6
f6
f2
11
fb
0c
19
00
03
fd
0a
0a
fe
0a
0b
fd
01
ff
f8
07
04
01
06
0c
0d
02
00
07
fd
f9
08
fd
f9
09
f7
e7
eb
ee
ec
06
f3
18
11
06
06
06
fd
fa
fb
fc
f2
f5
0d
0b
0b
04
fe
00
f7
f3
f7
fd
0c
10
f9
03
06
00
ed
f7
0a
0b
06
05
05
fb
f7
f2
eb
03
03
06
04
01
01
06
00
05
fe
00
04
fc
fc
05
f6
f9
fb
f0
02
06
ed
10
0c
06
1a
07
03
06
fb
06
fc
f4
0d
09
10
03
0b
03
04
0a
fa
00
fd
f3
ff
fb
fe
fe
fc
fe
fd
fa
03
05
04
0d
eb
ec
00
f8
f4
f1
f6
f9
f8
f6
f8
04
f6
fd
0d
03
fb
ed
12
0b
07
15
27
29
fb
ef
eb
08
f1
ff
05
06
0e
08
09
f9
fc
04
fc
01
1b
02
f3
e5
fb
f2
f2
07
fd
11
0b
fe
02
01
04
fe
f8
04
f4
f9
12
0d
06
01
ff
fc
f8
f6
ef
10
ee
ea
f7
db
ed
02
e2
fd
10
02
14
06
fe
17
03
f7
0a
0d
e7
f1
0c
d5
df
fc
e3
fc
06
0a
09
00
06
06
01
09
05
f9
fd
03
ee
fd
01
f1
03
00
17
18
0f
13
16
0c
21
1b
0c
02
ef
f4
06
f0
fb
0c
fa
09
04
fa
05
04
f8
03
02
f9
03
fb
f8
f9
f9
f6
f8
f4
fe
0a
f6
f2
fd
ee
fa
06
f1
08
08
fa
fa
05
fb
fc
0b
fa
05
0b
fc
f8
02
fa
00
05
fa
06
03
fc
e5
f1
f1
e6
f5
fa
f5
06
0a
0b
26
f9
16
18
fd
1b
16
04
f5
0a
fe
f3
04
fa
ed
f9
11
f1
fb
0c
ed
fd
14
f6
0a
25
f7
e7
03
cf
e8
13
d9
06
12
02
fe
0e
f3
ff
07
f1
03
07
05
08
07
04
03
06
06
08
01
06
05
05
02
06
02
03
0b
10
10
10
ee
f2
f3
0a
00
08
07
e7
e8
f6
e4
f0
08
f3
fe
f9
f3
f9
f6
ee
f3
fc
f8
f8
00
04
02
04
09
05
05
04
04
0e
d9
f3
07
c8
df
f0
c7
f6
17
f9
05
f7
e8
eb
f0
e3
ef
07
f6
f1
04
fe
f7
05
09
fa
0b
fb
fe
09
fd
fd
13
04
01
0a
02
14
08
05
01
07
07
08
0a
fc
01
00
fe
f8
05
fe
03
fa
0e
0a
00
0c
03
fd
06
fe
10
f9
03
0c
f3
f9
04
f0
fc
f7
fb
f9
f8
fe
f8
f8
f6
f7
00
01
04
03
00
04
fc
f4
fc
fd
0a
03
0a
17
09
f9
f1
f1
0a
0a
0e
fa
fc
fe
ee
f1
f1
15
0f
08
f1
f1
ef
e9
e5
ec
03
fd
1c
fc
09
0f
ea
e9
de
ec
e8
f2
ed
ee
f3
06
06
05
fe
fb
fb
04
00
fd
10
0c
0f
16
05
f9
06
f8
f5
f3
f3
f4
1b
13
0e
ff
f6
ed
e0
de
e2
08
09
07
f8
f8
fa
ef
f4
f5
09
09
08
f8
fc
fa
eb
eb
ee
08
0a
07
fa
f8
f4
f2
f4
f2
14
06
10
07
05
04
ec
e9
ed
f6
f2
f8
03
00
09
01
fb
fe
02
08
08
f6
f0
f5
0b
06
09
ef
ef
f7
f0
f7
f2
03
01
01
f8
00
05
f3
f5
f9
0e
05
0c
05
03
04
01
ff
01
10
0e
0e
07
02
06
14
11
14
fe
fc
02
10
0e
12
fe
0e
0b
e1
e3
ec
0b
10
0d
f2
f9
f4
ea
e6
e5
fa
f4
f0
f0
e9
e9
05
04
03
00
fc
ff
fd
00
03
03
00
01
fe
fd
fa
19
1e
16
16
0c
10
0d
0d
0d
11
0e
03
ee
e9
e5
12
15
19
eb
f0
ec
c5
bf
c7
11
0c
04
fc
f2
ed
e9
e9
f0
fb
02
13
f7
01
08
00
f6
f2
1a
ff
fd
11
01
ed
e8
eb
eb
08
00
01
01
f2
f9
0b
08
06
07
07
03
fb
fb
fe
16
0d
12
04
fe
14
0b
fd
02
11
f9
fd
0e
fd
f8
0f
f1
e8
0b
f3
ec
04
f8
0e
f8
e8
08
01
f5
0d
ec
01
12
dc
f2
01
eb
f0
f9
fa
f0
f6
fa
ef
f5
fa
f8
fa
16
0f
0d
10
11
08
0c
0c
08
e8
f0
12
df
eb
17
e0
ee
19
06
02
0b
03
03
12
01
08
19
05
f4
fa
fa
ff
fd
f4
04
05
09
ef
f6
05
f5
f5
03
05
fe
fa
ee
f7
f8
e8
f0
01
f1
f5
fa
f8
fb
f8
f6
fb
f5
f6
fb
fe
ef
f3
fd
ee
f2
00
f1
f8
07
03
11
02
ff
0e
07
0a
0e
fc
f5
fa
f9
f0
f9
ff
f2
f9
2c
f7
df
37
01
db
3a
0f
f0
05
f6
0e
07
f5
03
04
f8
06
0a
f4
f4
18
ef
e3
2a
fa
e7
0e
04
15
08
00
0e
0e
01
10
0f
03
01
fe
f5
f4
ff
f7
f2
fe
f4
f1
fb
f7
f8
fe
00
fc
01
f2
f4
f5
f0
f8
fb
fa
01
eb
ea
fe
e5
df
f7
ed
e0
ec
f4
01
0a
f1
02
11
f6
fe
10
02
fc
0c
06
f6
07
02
f2
fa
f3
fa
fa
f4
ee
f0
ff
f4
f1
fd
f9
f4
f9
f2
f3
f9
f1
f3
fe
f3
04
f5
f3
fe
f5
fb
03
04
05
0e
02
fb
0b
0a
fc
0c
1f
f4
fd
25
ff
f4
1c
0a
fb
e3
07
3c
cc
f7
3d
da
f8
2b
1c
eb
e3
2c
e8
d6
38
f7
e0
f3
f9
fa
f3
fc
fb
f3
f4
f5
14
1b
12
06
04
f9
fb
f7
f4
f7
f7
f3
e5
e3
e8
e9
ef
f3
fd
f7
f5
0a
0a
07
0e
11
0f
09
07
07
fe
f7
fc
fa
fa
ff
0d
12
0b
14
0a
04
08
fb
02
f5
ec
f0
f4
ed
f3
0c
0e
12
fe
f6
f7
f2
ef
f5
ff
ff
fd
ec
ea
f2
e7
ea
e9
f1
ef
f6
00
08
07
f5
f7
fc
f7
f4
fc
18
16
0d
12
0b
09
06
03
0a
07
06
02
02
00
ff
fe
fe
01
01
fd
fd
f5
f4
f7
fd
fd
02
0a
0a
0e
05
03
05
fb
ff
02
0c
05
ff
05
03
02
09
0b
09
1f
25
20
fe
fd
fc
f2
f1
ee
07
08
05
01
f6
f6
05
06
0b
14
25
1e
08
11
08
f9
fa
f5
f6
f5
f8
f6
f5
f5
ff
fd
ff
f7
f2
f1
f7
f5
ef
02
02
03
0f
1a
0c
10
06
05
02
01
00
15
14
09
01
f1
f9
fb
f7
fe
02
fe
00
0c
16
11
07
15
0a
f7
f4
f7
fc
fe
ff
09
0c
09
06
0a
08
ff
03
04
02
07
09
13
15
0a
05
01
01
f5
f8
00
14
14
0c
0b
fb
01
fd
f5
06
fb
fc
ff
f9
f9
fb
f8
f5
fe
02
00
fd
f8
f3
fb
f2
fa
fc
02
05
05
fc
ff
ff
fa
fa
fd
e9
e4
eb
fb
09
0a
19
2b
23
07
0f
0f
f4
fa
fd
ec
eb
e9
f6
f7
f1
07
09
04
12
0a
0d
fd
f8
fe
fe
f6
fd
00
fe
03
f8
f7
fa
fb
01
fe
06
01
0a
0a
ff
fc
00
f8
fb
f4
f3
fc
02
15
06
ec
eb
ef
f0
e6
ed
25
18
0c
10
f4
04
dc
da
ef
f6
ec
ff
fc
f6
02
15
10
18
fd
f9
fc
f8
f9
f6
13
13
10
10
01
04
0c
ff
ef
00
f5
f9
0b
27
10
fc
f2
ec
f2
dc
df
1b
13
0c
0a
fe
fc
f5
f3
f7
0b
0e
06
fa
f9
fd
ed
ea
f4
07
f9
01
fa
f7
fb
fe
fb
fc
0c
19
14
eb
f9
05
e7
d9
ed
fd
f7
fa
00
01
02
08
07
0c
fe
00
00
f5
f4
f7
07
09
0a
06
fb
fa
07
ff
01
0d
0a
01
04
06
ff
f6
fc
f9
02
06
07
01
fe
02
fb
fb
00
14
15
1c
fa
f5
ff
10
06
02
02
ff
05
06
1d
09
11
fe
ff
f8
f1
04
03
0d
fb
f6
f2
02
fa
f3
fc
fd
04
f7
04
0e
06
11
12
17
05
01
03
03
02
08
06
06
07
fb
f0
fa
0b
0c
f5
0b
0c
0d
20
05
08
02
09
fb
f2
f1
f5
2a
1f
10
ea
e9
f6
c8
c4
dc
1c
07
05
02
ed
ef
e4
e6
f1
0d
03
0a
e9
fb
0a
ea
ee
03
05
11
15
f6
f8
ff
ef
e0
eb
fb
02
fa
00
05
ff
06
07
0c
fe
01
ff
f1
02
fd
05
07
0d
06
05
fd
f3
f4
f1
f6
fb
f4
0b
05
05
00
fd
04
02
fd
0c
05
04
04
0a
0b
03
05
02
01
09
05
06
01
fd
fe
fd
fb
01
09
06
02
0b
07
0d
02
05
0a
00
fd
fc
05
f9
fa
00
f9
fa
fc
06
08
0d
15
0c
11
16
0d
07
05
06
0b
0a
07
0c
09
06
04
fe
07
04
0a
03
05
ff
fa
0a
08
00
0f
04
09
08
05
08
f5
f3
f9
f3
f1
f7
ea
f1
f6
04
00
03
07
03
08
06
04
09
fb
fa
fd
f9
03
fd
04
ff
00
04
fd
fc
06
01
0a
03
f5
10
fa
f4
f5
f2
ee
f2
fe
f7
01
ea
ea
f1
e8
e6
ed
f6
ed
f8
fe
06
06
00
03
01
06
15
0e
f3
f4
f9
f4
f0
f8
f4
ed
f4
0c
0a
0d
06
03
05
02
ff
03
00
03
03
f2
f9
ff
f1
f2
f8
09
0f
04
04
01
0b
fa
fe
04
f7
f5
f3
f8
f5
f5
fc
00
fc
e8
df
e8
e4
e1
e8
ed
ed
f2
fb
fe
fb
fc
fc
fb
f9
f7
f7
0c
03
04
0b
0c
08
08
0d
0b
0f
ff
ff
04
0e
01
0c
03
07
07
05
08
0f
0f
13
09
0b
14
09
fc
06
06
02
00
02
f7
fb
05
02
ff
0c
14
0a
0a
0a
0e
f3
ee
f5
f7
f5
f3
fa
f8
f8
f9
fa
fc
fa
f9
f6
f4
f4
f2
f8
e8
f2
e6
e1
e9
ec
e6
f1
05
01
02
02
05
03
f2
f8
fc
fb
f5
fa
f6
f7
f5
04
01
f7
08
06
04
0e
0b
08
07
fe
02
f8
f9
f8
f3
f9
f3
f4
ff
fc
f6
f2
f7
fd
f9
01
03
05
10
f5
eb
f4
fc
02
ff
14
2b
19
01
02
08
f9
ee
f9
10
02
05
03
00
02
00
fc
fc
fb
f8
fe
07
fc
01
03
0b
0e
ff
17
14
f3
eb
f5
fe
ee
fc
ff
08
19
f5
f3
f7
f9
fc
fa
04
04
01
f6
f2
f8
fb
fb
fe
06
07
06
f8
f8
00
f1
ef
f5
fc
f8
fa
f6
f4
fa
09
fa
06
16
03
25
fb
fb
02
02
00
fc
04
fb
f9
f8
f7
fb
06
05
00
1c
19
16
07
07
05
0b
0f
03
f4
fd
fb
04
05
fa
fa
fd
f8
09
13
06
08
04
09
fe
fc
01
fa
fc
fd
f2
f5
fb
f0
f5
f9
ec
fb
f8
f5
ed
f5
0c
05
05
0d
0f
11
f3
ee
f3
f7
f7
f6
fb
03
04
f1
eb
ed
f0
ed
f0
fc
fc
02
01
ff
ff
fd
fc
fe
ff
ff
02
0a
02
00
10
0f
04
07
fe
02
f0
f0
f1
fa
ff
fb
13
13
06
e4
dd
ea
f4
f2
f1
14
1c
10
f8
ea
fd
fd
02
07
05
1e
0d
f8
fc
f9
0c
02
fd
19
fb
0a
f4
ed
fd
f7
ed
fa
f6
ff
0d
0b
07
00
04
03
ff
03
08
0a
fa
f6
f0
fa
fb
f4
14
0b
0c
fe
fc
ff
f1
f3
f8
f5
fb
07
fe
fb
fe
f8
f5
fd
f7
fc
07
f5
e8
ee
eb
e0
e6
f3
e4
ea
09
ff
fe
03
fe
fd
09
05
04
05
05
01
07
06
03
0b
05
04
06
12
16
fe
02
01
08
02
fb
f1
09
2d
f9
0a
2c
f9
02
1e
07
fe
03
06
ff
04
09
fd
07
0b
fb
fe
04
fd
f6
0a
05
fc
07
05
09
05
07
07
0a
0e
0d
21
21
12
27
29
16
2b
26
16
08
0a
06
07
0c
04
0b
07
02
f2
fe
0c
f2
ff
07
f6
fd
02
17
12
07
0d
09
03
17
0c
08
04
f8
fa
03
f5
f5
00
f7
fc
e6
03
1f
e1
ff
1b
df
fa
17
f9
ed
ea
e9
e8
e7
ed
ee
eb
f1
05
1f
e8
01
1f
ed
04
1e
05
fe
03
05
ff
05
0d
04
07
fd
f6
fa
01
f4
f6
ff
f6
fc
f7
f4
ec
f5
ee
e1
fe
ef
e6
ff
07
0f
f8
00
01
f9
f7
04
03
12
11
01
0e
12
01
0b
0d
f7
fb
07
f9
fc
08
fb
fb
04
f8
f1
f4
ef
e8
e9
ed
ea
ec
fc
f3
eb
f9
f2
e8
f9
f4
e7
0c
13
14
0a
11
09
0d
ff
04
15
09
05
10
07
f8
12
08
ff
01
03
02
02
fe
fb
0a
fc
f8
16
0f
08
09
0c
06
06
13
10
f3
f4
04
f6
f6
05
ff
f6
04
eb
07
20
e6
05
20
eb
05
1e
08
0e
0a
19
17
17
0f
18
13
ff
01
01
01
00
01
f8
f8
fc
ff
02
03
09
0c
0a
05
06
05
03
03
ff
04
03
03
f7
fc
ff
ff
01
07
02
ff
04
ff
00
05
fc
f5
00
f3
ed
f2
ec
ea
ee
ed
ed
ea
0c
0c
0a
21
1e
18
fa
fb
fb
fe
00
01
02
04
06
fd
f9
fe
01
fe
01
fd
00
03
02
04
08
07
03
02
04
06
0a
08
04
06
06
06
06
02
03
09
08
05
05
03
03
04
02
03
05
ef
f2
f5
f3
f1
f6
02
fc
f9
fd
f8
05
f4
f2
fb
f6
f5
fa
05
07
09
02
00
05
04
07
08
02
06
04
f3
f5
f6
f6
f3
f8
e5
f1
ec
ef
e8
e8
14
19
11
07
0b
07
01
02
fe
03
05
06
fc
fb
fa
f3
f7
f6
f3
f4
f0
f9
fa
fa
fe
fb
fe
fe
fc
fd
f8
f9
01
10
ff
00
01
08
10
f9
fc
fa
fa
f5
f5
05
0c
09
05
03
03
00
01
04
f6
fa
fd
fb
fc
fd
0f
0e
0d
1c
1d
18
07
03
06
0c
11
09
ff
00
02
00
fb
ff
02
fd
04
0f
0c
07
16
10
19
11
12
11
0d
11
09
fe
fa
fc
02
fb
fb
fc
fe
ff
fb
fa
fc
fc
fb
fa
ff
fd
fb
f8
f7
f9
f4
ee
ec
fd
f5
f1
e6
e4
ea
0c
0f
10
23
2b
23
18
19
14
ff
00
01
fc
fe
ff
f9
fe
ff
ff
06
02
00
04
05
00
fd
ff
06
fe
01
0d
05
03
ff
08
04
fc
04
06
05
09
0c
fb
fc
fc
fb
f8
05
04
03
0a
00
04
1c
05
02
0a
ff
ff
fb
04
0a
06
ee
f5
f4
f0
e2
f0
f8
eb
ec
f5
ec
e8
f6
ee
ed
fe
ff
03
fe
fe
ff
03
fe
fd
fd
07
05
f4
00
ff
01
fc
f8
04
07
20
07
07
12
02
ff
f9
0b
09
0d
08
09
09
04
04
09
09
06
0e
05
04
0d
05
ff
00
fe
fb
fa
00
fe
f6
05
ff
fc
f7
f8
19
f4
ec
ff
f7
eb
e9
f5
f9
f9
fb
f6
fb
04
03
02
08
fe
f8
05
ff
f8
fe
f7
f7
fd
02
ff
05
fe
01
10
15
1c
06
03
00
07
00
fb
03
04
06
04
01
02
02
ff
03
0b
05
06
f4
f1
f1
f1
ee
ef
fe
f8
fb
02
0b
12
06
0b
0c
fd
fc
ff
01
0a
07
04
09
0d
08
06
09
fd
00
04
fd
03
04
ff
fe
02
fd
fa
ff
fc
fa
fc
fc
fd
fc
01
fd
fd
fb
01
ff
02
07
0c
0b
15
10
07
13
0e
0c
14
0c
1e
1c
27
12
0f
2a
07
fe
01
09
11
06
02
fd
00
03
f6
f6
fa
01
fd
f4
fa
fa
f5
f8
fd
f7
04
f7
fe
fc
e9
fc
f5
ec
f5
f8
fd
fd
fb
03
08
04
07
0e
04
fc
07
02
fc
fe
ff
fa
eb
e7
ee
e3
e5
ec
ea
ee
eb
ff
fd
08
05
01
06
fb
fa
f8
f9
f0
f7
fc
fb
ff
01
00
01
01
fe
02
09
05
04
08
07
02
05
05
04
05
00
09
0b
0d
0b
06
07
03
00
fb
04
02
fa
fd
dd
d1
ee
e1
d0
f1
09
fe
19
0b
0d
0c
fd
fb
fc
f7
f6
f6
00
fc
04
f6
fe
01
08
08
09
01
03
05
05
fc
0e
05
0e
0a
f1
f2
fb
f7
f4
fd
fa
fa
fc
fd
ff
00
fc
ff
04
02
05
06
e9
e1
f2
e5
e4
f8
01
fb
11
14
0e
0c
0c
01
01
05
04
05
0c
0f
0f
04
07
01
f3
f6
f2
d9
c4
de
d8
c3
e1
f7
e7
fe
06
0d
0c
10
11
18
0e
0d
10
f7
f0
fd
ef
e7
f5
f9
f1
00
0d
0e
0d
09
0b
06
05
03
03
f4
ee
f5
07
02
01
11
0c
01
01
0b
00
18
11
1a
10
26
0b
f7
ef
f5
fa
f7
ff
06
03
fd
f3
e4
f1
ed
de
e9
f0
e6
ec
04
04
07
06
00
07
06
02
07
fd
f4
f8
f2
f4
fc
fb
f9
fb
07
00
09
05
0e
02
17
13
11
fc
f0
f0
f7
f1
f1
07
00
fd
0b
0b
09
fc
07
05
0f
0a
06
0e
0b
fd
07
01
fe
09
08
00
fe
00
02
fb
fb
04
f7
00
fe
1f
1b
1b
0f
08
0c
f5
f3
f3
e6
dd
f6
e6
e7
f8
fc
f8
03
08
02
fc
fd
02
f2
00
ff
f6
fc
fc
00
ff
fc
00
fc
f9
f7
17
15
fb
13
0f
fe
03
0d
fd
fa
f9
f0
fb
fb
f7
fc
05
07
08
08
0b
02
1a
06
0f
05
10
fc
f7
f6
f4
ec
f8
f9
ef
fe
fb
00
19
e5
e4
02
ed
e1
f9
04
01
fb
fa
fd
00
03
fc
04
10
1d
ff
17
02
0d
0e
0a
fa
12
0a
12
01
21
02
19
05
09
0c
0d
0a
12
10
13
11
0f
11
fe
ff
02
fc
03
02
02
02
00
fd
01
0a
fd
ed
00
f2
f3
f7
fa
f4
06
ef
f9
f6
f7
f4
fe
f9
fb
f8
fe
01
ff
03
07
02
fd
fa
0c
fb
f1
05
f4
ee
f7
00
f2
f6
01
f7
e3
ff
01
f1
04
ff
ff
07
fc
02
fe
f9
fb
02
02
01
04
00
05
0a
0c
0f
fa
f8
f8
f2
f2
f9
f5
ee
f2
28
07
13
06
30
04
22
06
1e
06
00
09
04
0c
f5
05
04
fc
fa
f9
ee
03
01
00
08
0a
0c
04
05
08
03
03
05
02
ff
04
06
fb
f0
fe
f9
f5
03
ff
f1
0f
21
06
3b
11
17
1c
31
13
fb
fc
02
fb
04
f9
02
02
ff
04
11
fb
05
fd
03
0e
fc
fa
fb
f0
f5
fb
f7
ee
f4
fc
fc
05
fc
04
01
f4
f8
00
f6
ee
08
fd
f5
ff
04
fd
01
0a
10
09
07
07
08
01
0b
01
02
01
ea
fc
f8
f0
ff
fb
f1
fc
ff
f3
fb
ed
03
04
fb
fa
fd
f2
eb
01
ff
e5
00
fe
ed
0d
0e
f9
03
fd
fc
03
03
00
09
0a
fa
fd
f6
fb
ff
f8
ff
02
ff
f5
1c
fe
f5
1a
fc
ed
1b
fa
f6
ff
fd
f5
fd
fb
f6
fd
00
f1
fe
f9
fb
06
02
f7
06
01
f1
08
ff
ee
09
f6
ed
12
fc
f6
ff
02
fc
fe
fd
ff
02
02
fd
0b
f8
fe
0d
ff
fd
12
02
ff
ff
00
02
fd
00
00
fe
ff
f8
04
07
fd
05
02
fb
09
fe
ea
fa
04
ee
f7
05
f6
f7
12
05
04
ff
10
11
0f
04
0d
08
e8
0a
fe
f5
1a
0c
ee
0d
fe
ec
0d
01
e6
fb
f5
e8
f6
f4
f0
09
fd
ff
1b
0d
f7
14
06
eb
02
f8
f2
0b
02
f3
10
03
fc
0e
0b
fb
0d
0d
00
10
0f
ef
fe
ee
f3
fd
ef
f9
05
fe
fd
04
05
fd
fd
03
f4
fc
fc
04
08
06
04
0c
0a
06
0e
0d
ff
00
fe
fc
fd
ff
ff
fc
fe
eb
02
fc
ef
0c
04
ea
0f
0b
f7
f6
fa
f7
fc
f8
f6
fe
fa
01
f9
04
02
f6
ff
06
00
04
f8
fd
fe
f7
03
fb
f2
0d
fe
f3
fd
03
f1
02
0d
f0
fe
15
f7
05
14
f9
01
17
f5
04
1a
f8
f9
fb
f4
fc
fd
f8
01
01
ed
17
07
fa
2b
17
f0
1c
0c
