f8
f4
f7
fd
fd
ff
ff
ff
00
fb
fc
00
fb
fb
fc
ff
fe
fb
02
01
03
00
ff
fe
02
05
00
02
ff
fd
03
00
01
fc
fd
fe
0a
0f
07
00
fe
fe
fb
fc
fb
ff
fe
fb
00
02
03
ff
fa
fb
02
f8
f4
f6
f1
f5
f9
fc
00
fa
fe
fd
fe
fd
ff
02
01
01
05
00
05
00
05
05
04
07
05
fc
fb
f7
ff
01
03
fc
ff
02
ff
ff
01
02
05
05
08
0d
05
ff
03
01
fc
02
00
f5
f9
f6
0a
0d
11
fa
fd
fd
f9
fa
f8
fe
ff
fd
f3
f1
f6
00
02
02
07
06
02
0d
10
13
f9
fb
fb
07
04
fd
fd
fd
f7
f4
f5
f7
ff
00
fe
01
03
02
00
03
02
fc
00
fd
00
fd
00
01
00
fc
04
fa
00
00
fb
fb
02
03
02
02
00
07
07
fc
f7
05
ff
fa
00
04
04
05
0a
09
fd
ff
ff
01
fd
04
02
01
07
04
0a
09
06
03
02
ff
01
04
fe
05
01
05
07
07
ff
ff
04
fb
fe
ff
05
fc
02
f0
e8
ed
f4
f5
f4
06
04
03
02
fc
f9
01
01
00
02
08
04
fe
fb
fd
fd
fb
fb
f9
fe
03
fa
f7
f5
06
04
06
fd
fc
00
f8
f8
fb
fe
03
01
f5
f6
f8
ff
ff
03
00
00
02
06
0a
04
fe
00
fd
f7
fa
fa
03
03
02
fa
f5
f0
fa
fb
fc
05
fd
fb
04
fe
fc
03
04
02
05
0a
05
ff
fe
fe
ff
ff
00
0b
04
05
01
fc
ff
ff
ff
01
fb
fd
ff
09
05
f9
08
0a
06
f5
f7
f8
01
ff
01
09
07
08
06
fd
01
ff
fc
00
00
02
00
03
f8
fc
06
0a
05
01
09
04
fb
ff
fb
e8
ec
f0
f5
f9
fb
f7
f8
fe
f7
f8
f8
01
ff
fe
fc
ff
fd
f6
fa
f8
fc
fd
fc
fa
f6
fd
f8
f9
fb
fe
01
01
f9
fe
02
f4
f7
f9
f7
f7
fa
fc
f5
f8
f9
f7
fb
fd
fc
00
06
08
08
01
01
00
fb
fc
fd
f0
f3
f4
f7
fb
fb
00
06
03
04
00
fb
f7
fe
05
fe
00
07
01
00
fe
ff
01
fe
00
fe
00
03
04
08
05
02
07
03
00
00
00
01
04
03
09
0a
ff
ff
ff
02
06
04
ff
06
ff
fd
fc
fb
00
ff
00
0f
10
10
0a
11
0c
fe
00
03
f8
f8
fe
fb
f9
fb
05
07
05
fd
01
04
f6
f4
f7
02
00
02
02
03
02
04
0c
08
ff
fb
ff
02
00
03
05
06
04
fe
f8
fb
fc
f7
f5
fe
fe
f9
05
fd
fa
fb
f9
fe
fe
fe
03
01
03
04
00
ff
fd
f5
f7
f2
01
01
07
05
00
03
f8
f8
f8
04
08
07
06
06
0a
f9
fc
ff
07
03
0a
09
08
09
fb
00
fd
03
06
ff
f8
f9
f6
f9
f8
fa
06
0b
02
ff
fc
f7
00
fc
fd
02
00
07
fd
ff
06
00
00
ff
00
09
04
00
01
fe
01
ff
ff
01
fb
fd
ff
fa
fc
00
fe
02
03
07
02
04
07
02
03
08
01
0b
09
0a
0c
0a
0a
00
02
01
09
07
00
ff
fd
fc
ff
fe
05
fe
fd
fa
fd
fb
fa
03
fe
00
fe
01
01
f8
fa
fd
03
05
06
f7
fc
0d
fd
f6
04
fd
fc
03
fd
05
fd
fc
fd
f7
fe
fd
fb
fe
ff
fc
00
01
00
ff
ff
00
06
09
07
00
01
fd
03
02
02
fd
05
fd
f9
fd
fa
fa
fc
fd
fe
04
04
08
11
0b
01
03
ff
fc
04
08
00
04
01
ff
00
ff
fe
fd
fa
ff
fb
fb
02
00
02
ff
03
01
fc
03
fd
00
00
f9
fc
f6
f8
f8
f7
fa
fe
fc
ff
01
03
0c
02
fd
03
02
fd
ff
03
f4
fb
01
fb
01
05
fe
01
06
f6
01
00
f8
fe
01
ff
03
fc
fa
fa
fd
fc
00
02
05
0a
01
fd
ff
01
01
04
f9
fc
f7
01
fa
fd
fa
f6
fe
fc
fa
fd
00
fb
fd
05
fe
01
04
f9
01
ff
00
03
fa
fc
fd
fc
fa
fa
fe
05
03
fd
fb
f5
03
fa
f8
10
ff
f8
01
f7
fb
fd
fb
fa
f9
01
00
01
04
ff
03
01
04
fe
04
03
02
04
02
01
01
fd
ff
05
04
ff
00
00
fc
fc
fc
03
03
02
ff
03
02
05
07
05
01
03
02
02
00
00
02
02
01
fd
fa
fa
01
fb
fb
02
ff
ff
05
0d
04
02
04
fd
fb
f4
f0
04
06
fc
ff
fa
f7
f8
f3
f5
f9
fe
f5
f8
ff
fa
fd
0a
01
00
f6
fe
08
00
05
0f
0b
0f
02
0a
06
fa
fe
fb
f7
f7
f6
fe
fc
fe
fc
f9
f9
01
f9
fd
fc
fe
01
fe
fe
fe
03
00
01
0b
f5
13
0b
f7
14
11
fc
11
fd
fe
0a
fe
fb
03
ff
fd
01
09
02
04
05
ff
06
06
02
08
04
fc
fc
05
fc
fc
04
fd
fe
03
01
02
00
ff
fa
09
07
07
08
08
00
ff
01
07
f7
f6
00
00
ff
00
00
ff
01
00
fe
01
fc
ff
ff
fd
fe
fe
02
04
00
fe
fd
02
03
05
03
04
01
02
06
f9
fd
0b
fe
05
0c
fe
08
f9
fa
fb
f9
f7
fa
fd
00
00
08
02
fc
07
ff
f9
fb
f6
fb
06
04
02
03
fc
ff
02
fe
ff
f8
f9
f3
f5
f3
f3
fb
ff
ff
03
02
00
01
03
03
05
07
08
fe
ff
00
04
07
03
0b
0a
05
05
fc
fa
fe
f7
ff
ff
f8
02
05
0e
05
02
07
01
03
06
ff
fc
f7
00
f8
f6
00
02
03
04
02
fd
fb
02
04
01
fa
fe
fc
fa
f5
02
f9
f8
00
fc
00
05
f7
f5
f6
fb
fa
fb
02
fd
01
fd
fd
02
fe
fd
01
ff
fe
fc
fe
02
02
fe
00
00
fc
fb
f9
02
08
09
07
0d
0a
ff
fe
fe
04
04
03
03
01
ff
01
fe
f8
fc
fb
f7
fe
fa
fa
06
03
01
f7
f8
fb
f9
fc
01
f8
f9
fc
03
ff
04
ff
fe
ff
fd
fe
fc
05
00
01
02
fc
fb
00
fb
f6
fd
00
fd
fe
00
fc
fe
04
fb
01
08
fe
06
04
02
01
ff
04
05
08
08
0b
0e
09
00
01
fb
03
02
04
05
03
09
ff
01
05
06
03
03
00
fd
fa
09
0a
06
fc
fa
fd
f9
f8
fb
fa
f8
f7
04
06
07
04
02
03
fb
fa
f8
f9
ff
02
fe
02
04
fb
fb
fd
fe
fd
fe
fc
fb
fe
fc
f9
fb
ff
02
03
fb
fb
fe
fb
fb
fa
00
00
02
04
ff
03
04
01
01
fd
03
03
04
00
00
00
fb
fc
fc
04
02
02
03
07
fb
fc
02
01
02
06
08
04
05
06
03
01
fe
f9
fe
02
00
03
fb
f9
fa
f7
f8
f9
fd
fc
fb
fa
f7
f6
08
09
0d
02
fd
01
01
fe
fe
00
00
00
09
06
00
0e
10
0a
01
fc
01
fa
f6
fd
fc
fb
fd
07
0b
02
07
03
fd
0d
0a
fe
01
07
01
ff
03
ff
f6
f6
f2
01
02
04
fa
fd
02
fc
fb
fa
03
02
02
04
06
08
05
05
06
ff
fd
05
fd
fe
02
00
01
02
04
ff
07
ff
f9
04
ff
f7
01
03
05
04
01
fe
fe
01
fd
fc
fd
fe
ff
00
02
02
fd
fe
fa
f7
fc
06
fc
02
05
f9
01
fd
fd
ff
00
fe
ff
01
03
02
04
04
07
05
f8
fb
fc
fa
fa
fd
fb
fb
0b
fe
fb
0b
fd
fc
07
fe
f6
f4
f7
f2
f4
fd
f6
f4
0b
0d
02
03
04
fd
03
01
fd
0b
09
16
02
ff
05
07
03
04
02
fc
f5
0a
05
fe
04
00
fc
f4
f8
f2
fa
fe
f7
fc
f9
f9
04
02
03
05
02
07
02
fe
00
04
fa
f6
05
fd
fc
02
fe
fc
fb
01
04
00
02
08
fc
f7
fc
07
01
f5
09
05
fb
fe
fa
f8
00
01
01
00
01
00
fd
fd
fe
fd
fd
ff
fd
00
03
fc
fc
fb
02
07
08
fd
fe
04
fb
fc
01
03
f7
fb
06
ff
02
03
fd
02
fd
fb
fd
fa
f8
fc
f9
f9
f7
03
02
fb
02
04
fe
fe
01
01
07
0a
0a
02
02
06
fb
f6
f8
00
01
00
ff
00
fe
00
fb
fb
fe
04
fa
03
0b
01
02
08
04
fb
fe
08
fd
fd
06
f9
fc
ff
01
f8
ff
01
fc
fe
04
fe
fd
0a
0e
08
07
08
06
f7
f2
f2
fb
fd
fd
f9
fd
00
fb
f7
fe
fb
fa
f6
04
04
01
05
06
09
f6
ff
04
fc
fe
01
fd
f9
fd
04
04
00
01
fc
fb
01
fd
fd
f9
06
ff
f5
ff
fb
fc
04
fb
02
01
fa
fe
02
fe
00
03
fd
02
05
05
fb
ff
03
ff
01
02
fe
04
05
03
03
07
01
01
03
01
01
fd
fd
fe
fc
fe
01
00
ff
02
05
fb
04
09
f9
00
05
fd
fb
00
00
f9
fa
04
fe
f9
03
fe
fc
02
fc
fa
fe
fa
fa
fa
06
04
fc
05
04
fd
05
07
f6
03
f6
f7
04
f7
fe
fd
f5
f6
fc
f9
f7
03
ff
fa
fd
fd
fc
fa
01
fd
01
03
00
02
01
04
09
fe
03
04
00
01
03
01
ff
07
00
ff
09
00
00
06
fe
fe
01
07
fd
00
0b
fd
fe
09
fb
07
ff
f7
01
fd
fa
ff
fe
fc
fc
03
fe
fe
02
fe
fd
ff
fe
ff
fe
f8
ff
fb
ff
00
fe
06
08
fd
06
06
ff
05
04
fa
00
04
ff
03
0a
02
01
fe
01
ff
fb
fd
00
fe
03
fb
fb
04
00
01
fb
00
ff
fb
fb
f7
fb
f8
f7
02
fd
f7
00
fd
f9
fc
f9
fa
fa
f7
f5
fe
f7
f7
ff
fe
fe
09
00
00
0c
fd
fd
08
fc
02
04
01
03
03
01
00
fe
01
02
fc
fe
02
00
f9
fd
fd
fc
0a
fe
fb
12
ff
fb
0a
00
fc
ff
08
fe
01
10
fd
04
0b
fc
ff
fe
f9
00
00
fb
00
03
01
00
01
09
08
04
04
04
ff
fd
fa
fb
fe
f8
f7
01
f8
f6
01
06
03
05
07
04
05
07
05
03
01
fa
04
01
fd
03
03
02
fe
02
fd
02
fe
00
00
fb
fc
f1
fc
fe
f7
fd
fb
03
03
fa
fc
ff
fb
ff
00
f8
fd
00
fc
f8
0e
06
fa
08
fe
00
06
ff
f7
f5
04
fd
f5
08
fd
f2
00
ff
0a
03
fd
0b
03
f7
08
06
02
07
02
ff
0b
06
ff
0a
08
fc
f9
fb
03
fd
f5
06
06
fb
f6
06
04
f9
02
10
f8
f9
0c
fc
02
ff
ff
07
02
fd
00
f9
03
01
00
02
ff
0a
fe
fb
04
fe
fe
03
04
01
0a
00
fd
06
f9
f9
ff
01
fe
00
02
05
fc
f8
fb
f2
fa
00
f3
fb
00
f7
fe
fe
ff
fd
fd
00
fd
fe
ff
06
08
04
06
09
08
02
06
05
fd
fd
00
fd
fc
03
fd
f9
05
fb
fe
f9
fe
00
02
fb
ff
01
fc
02
fd
03
05
01
ff
00
fd
fc
fb
01
fd
f7
f9
fd
f7
f9
fc
fa
00
fc
fa
09
f9
fb
07
f8
00
00
01
07
07
fd
02
03
fa
08
fb
02
0d
fe
05
0b
fa
fc
01
08
fd
fe
06
05
00
fb
fb
f9
ff
fd
f7
05
f9
fa
05
fb
0b
07
f9
04
02
ff
02
fc
fb
06
09
f9
02
0f
f9
00
0d
01
fb
f7
04
fd
f6
04
fc
f9
f9
00
07
fe
fb
0d
ff
f9
03
04
fa
ff
05
fa
05
02
f5
01
06
fe
fe
0a
00
ff
0b
05
06
fe
ff
ff
03
02
01
04
02
fe
08
0c
0c
00
00
03
07
00
fb
fc
f7
f7
07
01
fb
06
02
fd
fd
00
fe
05
03
fb
05
04
ff
f8
f7
fa
fb
f3
f8
0a
03
05
f2
ea
ed
fd
ef
ec
fa
f1
f0
00
fc
fe
01
fb
ff
02
fd
fd
ef
f1
f1
ed
ef
ef
fe
02
ff
fc
04
03
0a
0a
07
0d
0c
02
0c
09
05
00
fc
fc
12
09
0b
09
08
00
11
0b
06
15
0f
0a
f6
ee
f4
f0
ed
ed
fa
fd
fc
fd
f9
f7
02
fd
fb
04
01
02
f7
f6
ef
04
06
f8
11
13
01
09
0c
0e
02
fe
06
00
fb
f7
09
05
02
09
03
fa
0f
0c
00
fb
f7
ff
02
fd
fc
01
ff
fd
f6
ef
f6
fa
fc
f6
f4
fb
f4
05
06
09
08
05
06
10
0b
03
0b
0f
10
05
0e
0f
fa
00
03
08
0a
06
09
0a
06
07
0b
00
04
00
f9
06
01
fd
03
fc
fc
f7
f9
fa
00
01
fe
00
03
fb
f3
f3
f9
f0
f4
f7
f1
fe
f8
12
0d
01
0e
0a
fb
07
fe
f7
0d
0a
0e
0b
03
06
0f
0c
0d
02
fc
00
08
01
00
0a
07
00
fe
f7
f4
05
03
01
fe
ff
02
02
fd
ff
fd
f6
f9
04
ff
00
02
00
00
04
ff
fd
ff
fd
fc
fe
01
01
f9
fb
fc
f4
f6
f9
ff
ff
00
f9
fb
fe
fe
02
01
fd
ff
fd
f4
f9
f7
fc
fd
fd
02
fe
02
02
fe
02
04
05
01
04
04
03
03
fe
05
07
01
ff
0f
0a
0d
0c
04
0b
0b
07
0b
fc
fd
ff
ff
ff
fd
f9
fd
01
fd
ff
ff
f8
fe
fa
f9
fe
fc
f6
f2
ee
04
fd
f7
11
0b
08
f6
ef
f1
f8
f5
f6
f9
fa
fa
f8
f3
f5
f7
f0
f1
fc
f8
fa
06
04
f7
ff
02
f2
f3
f6
e1
f7
f5
f4
ff
01
fb
f8
f5
f1
fa
fd
f4
f9
ff
f7
f3
fa
f2
01
04
f8
02
03
f6
fc
fd
f4
00
fe
fd
ff
fb
f4
02
03
02
0e
08
03
0a
03
04
01
fd
01
01
ff
01
01
01
fe
02
00
ff
f9
f3
f4
02
fe
fc
ff
fe
f9
fc
ff
00
fa
03
ff
fd
02
ff
0c
12
0c
f8
fe
fe
f1
f5
f1
ff
fb
fb
fe
03
04
13
12
18
15
13
09
0c
09
07
07
09
03
02
fa
f7
fb
f1
f1
0e
08
02
00
fb
f7
01
02
02
16
17
1a
0e
0e
0a
fc
fd
fe
ec
ed
ef
04
09
0f
06
06
04
fd
01
fc
fe
01
fc
fb
fc
f5
f9
f8
f0
fb
f4
00
f3
eb
f1
00
fb
fc
f2
f0
f9
f8
fd
00
fe
01
ff
0a
10
09
02
03
fe
ea
ec
ed
f4
eb
f2
04
07
05
04
02
01
0b
00
04
0d
02
05
07
02
02
fe
fd
fa
08
04
05
04
fd
fd
02
fb
fc
ff
fa
fe
03
00
00
f8
f7
f5
f9
fc
fe
fc
fc
fd
00
fb
fd
00
fc
fd
03
01
02
ff
fc
fd
01
fe
fd
06
01
03
09
03
09
10
08
09
08
00
05
f9
fc
00
fd
fc
ff
01
01
04
01
fc
fe
fc
f6
f9
ff
fc
fd
f2
f2
f8
f4
f8
fa
fe
fd
fe
fc
03
08
ff
ff
ff
f7
fb
f5
fb
fa
fd
ff
fe
03
fe
00
fe
02
fc
fe
fe
fb
00
03
03
04
fe
fc
fd
00
01
02
05
04
03
02
ff
01
02
fd
02
fa
f7
fb
00
ff
ff
f9
f8
f8
f7
f7
f5
00
00
00
04
04
02
00
fe
fe
fc
fe
ff
ff
ff
01
03
04
02
06
0a
0c
03
fe
00
00
fc
fc
fb
f3
fb
f7
f0
fc
ff
f9
ff
f8
f8
f9
f7
f1
f6
03
fe
fb
07
fe
fc
00
fb
ff
fd
ff
01
f9
f9
ff
f5
ef
f4
fd
f7
f9
08
01
01
fd
f9
f4
fc
f7
f4
02
ff
fe
fc
f6
f4
fc
f7
f8
01
03
08
f6
fd
04
f8
02
04
06
01
04
07
02
06
0d
0b
0a
10
0c
0b
01
fb
fa
ff
fa
f9
f9
f3
f8
f7
f2
f4
02
fb
f8
fd
f9
f3
00
fa
f3
05
fd
f5
01
fe
01
06
04
09
02
fe
00
f8
fa
fb
fa
f8
fc
0b
08
04
00
01
ff
ff
06
0a
06
0e
0f
03
fc
ff
fc
fa
fb
08
08
07
00
ff
fe
02
01
01
03
ff
ff
03
fe
ff
00
fb
ff
05
ff
00
f7
fb
00
02
06
0f
12
19
18
0a
0d
0d
0c
06
0b
05
fc
fb
01
01
00
fa
f9
fc
05
02
04
0d
06
07
f6
f2
f6
fa
f8
f8
fb
fa
fe
02
fb
01
06
02
07
07
00
00
fc
f9
fe
08
02
01
fa
f8
00
f0
eb
f1
0a
03
03
fe
f8
05
fb
f4
f9
01
fd
fd
f6
fb
fe
f3
f2
fa
f3
ee
f2
fe
ff
ff
f9
fa
ff
fb
fe
fd
06
01
03
fd
f6
f7
fb
f8
f5
f4
f5
f6
f7
f4
f5
10
0f
09
ff
fc
f9
0b
09
07
17
1b
16
00
02
03
04
02
02
01
04
04
04
fd
02
06
02
07
12
0e
11
fc
fb
fd
f4
f2
f7
f6
f8
fa
03
fd
ff
01
ff
02
04
04
07
fb
f8
fc
fb
f9
fe
06
08
06
fb
fd
00
01
05
06
05
11
16
02
fd
00
03
03
09
02
06
05
09
06
0a
00
fc
02
fd
f8
fa
0c
08
07
07
01
ff
04
fc
fa
06
0a
09
f7
f6
f5
f8
f8
f5
fa
fe
04
09
0b
0d
0a
0a
0c
0c
06
04
03
01
ff
fe
f6
f9
12
0c
0e
09
06
0a
fa
f9
f9
03
02
00
09
03
01
04
01
00
06
08
0a
f4
f1
f5
f6
f0
ee
fd
fa
00
01
f9
03
fd
fe
03
fe
f5
f3
02
00
f8
01
00
fb
02
fd
fc
f8
f9
ff
fc
fb
03
f7
f1
f9
00
01
ff
07
0a
01
fe
fc
fb
fe
fe
ff
fe
ff
fc
00
02
fe
fc
fc
fd
fb
fa
fa
03
00
fe
fd
fd
ff
fa
fb
fa
fe
fd
fb
02
ff
fb
06
01
f7
fb
fc
ff
fa
fd
fe
ff
06
07
03
05
01
01
08
fd
07
0f
04
fc
ff
04
03
05
fe
ff
03
03
fa
fc
fe
fe
06
fe
02
09
04
03
04
01
03
03
06
fd
fe
04
03
05
fd
02
07
fd
03
08
fc
fe
fb
f6
01
fd
f5
fd
f9
f8
01
05
00
07
0a
06
ff
02
00
f9
f5
f6
fc
f8
fe
fa
f8
00
ff
00
00
fb
fe
fe
00
02
ff
00
fd
f9
fa
fb
fb
f4
f1
f6
03
01
f6
02
07
f8
03
07
f7
01
ff
fc
00
04
0a
fa
03
08
fd
01
04
fc
f8
00
f8
f7
02
fd
02
04
fd
06
06
f9
fb
fa
00
02
01
06
08
fd
09
0b
04
ff
f9
f3
fb
f8
f9
ff
fe
00
fe
fb
fd
05
06
09
06
02
fc
02
06
0b
02
04
07
09
0a
0c
fa
f8
01
f9
f7
00
01
02
06
fa
f7
f4
f9
fd
f9
f9
04
ff
fa
fd
fb
fd
fa
ff
fb
fc
01
ff
fe
fd
fb
fe
fc
fd
fd
fc
01
01
fd
05
05
01
01
fd
ff
03
fd
fc
01
ff
03
fa
fe
ff
fc
fa
fc
f7
f8
01
f9
fb
02
fe
fa
fb
fa
f9
fc
ff
ff
01
02
fd
fa
fd
fa
f9
fd
fd
ff
fe
fd
f5
fc
fb
04
fd
ff
05
01
02
f8
ff
fe
f8
f9
f7
f7
05
02
fb
02
fe
ff
fe
02
01
ff
04
0a
03
08
fe
03
02
f9
0a
07
fa
04
ff
f8
fb
f8
f7
fd
01
fd
fd
03
00
fb
02
01
02
0f
00
f8
fc
f5
f6
f5
f2
fe
f6
fc
01
f7
fe
f7
f1
03
f8
ff
08
fa
04
0a
04
08
0d
fb
f5
fd
ff
fa
00
ff
fd
fe
fa
f9
fa
00
fe
01
01
ff
ff
06
0d
03
fe
02
f9
f9
fd
f7
fa
01
0d
0b
06
07
0f
08
07
00
00
fd
00
ff
00
ff
fe
fd
f9
f5
f7
f8
fa
f8
f9
fc
f8
02
01
fc
06
00
00
fe
fb
03
fd
fd
fb
02
fb
08
f7
f5
06
fe
fe
fb
f8
f9
f6
03
03
04
03
03
fe
08
07
01
ff
ff
fa
fa
f5
f8
fa
fe
01
00
07
06
01
03
fd
00
00
00
07
0a
0b
03
01
0b
00
fb
03
03
fd
04
02
07
0d
06
0b
12
01
01
07
fb
fb
f9
03
00
00
08
00
f7
fa
f7
fe
00
04
04
04
05
01
f8
f8
fe
f5
f9
00
fd
01
00
04
04
07
03
fe
03
ff
f8
00
fa
fd
02
fb
ff
04
01
01
05
08
0a
ff
0a
07
fa
01
f9
f4
05
fd
fe
00
fa
f7
ec
f6
05
fb
fb
fc
f2
f9
fd
f0
fb
02
09
01
00
09
02
fa
fe
fd
fe
fe
07
04
01
08
02
09
05
fc
f6
00
09
f3
fe
12
f6
03
10
06
fa
f1
fb
fa
fb
f1
fe
09
f5
fc
11
f5
fe
15
ff
fc
0a
ff
ff
03
fa
00
01
fb
02
ff
fb
03
08
fc
fb
08
05
fc
02
f3
09
16
f0
08
0f
fb
f3
fb
0c
02
f9
08
fe
f8
07
fe
fd
ff
ff
fe
03
ff
00
05
0a
09
02
fe
08
ff
f8
07
ff
fc
0b
fd
fb
ff
f7
fb
00
fa
00
07
1e
08
f1
2a
06
e8
1c
00
ef
fe
06
0e
fc
02
06
f4
f8
07
0d
09
02
06
07
02
01
ff
fb
04
f7
f6
0c
fe
f7
0a
03
f8
f8
f9
04
f3
f3
03
f2
f1
fe
fb
04
01
fb
05
01
fa
f1
01
fc
f2
f9
09
f7
fb
0f
04
05
06
04
09
01
05
03
0d
0d
01
f9
fe
01
fc
06
00
f8
05
02
05
03
04
00
fa
05
f2
f3
07
0e
fd
f2
0e
ff
f6
08
01
f5
e6
f6
08
dc
f4
0f
e6
f9
16
fd
fb
09
f4
fa
14
f0
f4
08
f9
fb
00
f1
fa
fb
f3
fe
00
f8
ea
ec
fb
ec
f7
fd
0e
0f
0f
02
fb
05
fb
f8
f8
f4
f9
06
08
00
0b
01
f8
05
fe
00
0c
03
f9
0c
fe
ff
ff
fa
05
f6
f8
fd
fd
f7
08
0b
04
0c
fc
fe
04
fe
fd
01
ff
fc
01
f6
fa
02
f7
f9
fc
fc
01
00
fb
06
fd
f7
fe
06
f7
f3
06
0b
ff
fa
02
fc
fb
04
06
0d
0a
f8
f0
07
ef
f0
06
f0
f6
04
fe
fb
0d
03
fb
19
09
03
0d
ff
f9
07
fe
f6
02
f8
ff
f8
f6
fb
f8
f9
fe
f8
02
fd
02
fe
02
f2
f5
0b
f7
f1
ff
f3
fe
06
f7
00
04
f8
02
06
f8
04
09
fe
06
0b
03
f7
05
f4
f1
fd
00
f8
01
fb
f9
07
fc
fd
03
00
ff
06
fd
ff
0b
0b
f7
fa
00
f5
fa
fc
fa
fc
07
f0
03
01
fc
08
f8
11
0c
00
01
03
02
03
01
02
00
fe
ff
f8
00
fa
f5
fa
f2
ee
f3
04
f4
f7
10
f4
f5
0a
ff
fe
ef
f6
ff
f4
fe
0a
f3
08
0e
04
00
fe
01
fd
fa
09
01
fc
02
00
02
02
04
07
08
ff
fc
08
ff
fe
04
f6
fb
fb
f8
ff
03
fa
f6
09
f5
f2
16
ff
f3
fb
07
09
ff
09
05
04
0d
09
0c
04
f7
04
ff
fb
f8
f6
fd
f6
fb
08
ee
ff
0f
e8
fe
0f
08
0a
fe
11
08
fc
0a
00
f8
fa
f7
f5
07
fb
f9
13
fd
f6
f8
fc
00
00
01
fa
02
04
fd
f7
02
fd
0e
12
fa
24
11
f4
01
f9
f9
fb
f5
f5
01
f7
f5
02
01
03
f7
f9
fb
07
01
fd
fa
fb
fa
00
ff
fc
02
ff
fc
0a
03
06
fd
f6
fc
fb
fc
fe
fb
fc
fd
fc
fb
fe
02
05
05
01
02
07
02
04
05
06
03
04
01
00
02
07
09
08
07
06
04
12
02
03
09
02
fb
01
04
fd
09
09
fc
00
fc
f8
fa
fa
fb
f6
00
00
fd
05
03
fd
fe
fd
f0
e3
e5
f9
ed
e6
f1
fa
f6
ff
02
ff
fa
ff
fd
07
04
00
09
08
05
05
fe
01
01
00
01
05
01
fe
02
02
fd
02
fe
fd
02
00
ff
fc
ff
00
05
01
ff
fb
f8
02
f9
f6
01
01
fe
03
07
fe
fd
fd
f9
f5
ff
00
fb
fb
f9
f7
fc
f7
fb
00
ff
02
f2
f8
04
fe
01
07
0c
09
07
fd
01
fe
f4
fc
fd
f6
ff
00
ee
ed
f2
f5
e9
f2
fe
ec
f4
0b
0f
04
09
06
00
05
fa
f9
fc
fb
00
fd
fd
03
fd
03
07
fe
01
0a
01
02
06
07
06
0b
00
fc
fb
ff
ff
fc
03
00
ff
00
00
fe
fd
f8
fe
fe
f9
fe
00
00
02
fa
f9
fb
01
ff
02
0f
09
fa
0c
0a
f9
08
08
fb
08
0d
08
fc
fa
fb
0a
fd
fa
06
0d
00
0b
09
fd
0c
ff
fc
05
06
07
f9
fe
03
fa
fc
00
06
05
02
00
02
02
fe
02
fe
00
07
02
02
08
01
fb
ff
fb
02
04
0a
04
fd
03
fc
f7
01
00
06
03
fc
00
ff
ff
ff
fe
fb
00
fc
fa
ff
fc
00
03
00
e7
f7
f8
f8
ff
fb
0b
02
f7
fd
01
fa
f6
02
fc
0d
0d
04
eb
f2
04
fb
fe
03
0f
08
fd
05
06
0d
09
03
06
08
04
05
01
02
05
ef
fb
04
fc
ff
01
04
09
03
03
fc
f7
01
f5
f1
10
05
ff
00
01
fc
f7
01
fe
0d
0e
12
03
ff
0b
01
fe
0c
fb
f5
f2
01
f3
ed
fd
f8
f2
01
fa
03
02
f5
fe
fb
f6
fd
ff
f8
f9
03
fa
fe
08
00
03
fa
fa
f7
ff
02
01
fe
ff
04
05
04
ff
0c
0b
f4
0b
04
f9
00
ff
ff
01
00
ff
00
02
00
fe
fa
fc
f9
f3
f7
f5
f2
f7
0a
05
06
01
fe
fe
00
01
01
01
05
04
00
fa
05
f7
f6
02
03
08
08
02
04
04
08
00
fb
f9
fb
fc
fa
fd
ff
03
01
01
10
0d
05
03
06
01
03
05
02
03
0e
08
02
0b
05
0c
0b
04
01
0c
08
05
0a
01
06
0c
03
fb
00
03
03
05
08
0c
0f
09
f7
fa
01
f8
f3
fb
f4
f0
fc
06
06
03
f7
fa
f9
08
0a
04
f8
f8
00
02
fe
fe
0e
05
02
f8
fa
f8
01
00
fe
01
06
00
f5
f0
fa
fe
f6
f8
01
01
02
00
00
fb
00
ff
00
04
03
05
07
05
fe
fd
02
fa
f1
f4
f7
00
00
fc
fb
00
00
f5
f8
fb
04
05
05
0e
13
0a
06
05
fe
fa
f7
fd
fa
f6
f8
03
fe
f8
fb
fb
fb
fa
f7
fd
06
05
03
05
09
01
fc
f9
f8
ef
e8
f2
f8
ff
03
f6
f3
ff
02
fa
fa
00
fd
fd
f9
f9
fd
f8
f8
fd
01
07
07
fc
fc
02
fb
f7
ff
eb
f7
0f
ed
ec
09
01
f1
f7
02
02
ff
fe
ff
f7
06
04
00
07
fd
f8
07
01
fe
06
06
08
fd
03
01
02
06
09
01
00
08
00
03
05
f8
fc
fc
fa
ff
00
0b
09
06
03
02
fe
fa
f9
fa
02
0c
0a
03
0d
0f
fb
fb
f9
01
02
01
01
03
05
fa
f4
f7
02
02
00
01
05
02
00
0a
03
fb
fb
ff
fb
f7
fd
f7
f1
f2
ed
fb
10
fb
01
06
14
03
fb
06
f2
f0
0b
fb
f5
0d
0a
02
f9
f4
f9
00
01
06
09
0d
0a
00
f8
fa
fd
fc
fd
f9
ff
04
fb
fb
fb
01
02
04
ff
fe
01
f6
f3
f2
ff
f9
01
fd
f8
02
01
01
09
fc
f5
01
fd
ed
f9
09
06
0d
05
00
07
f9
f4
f9
09
0d
0b
fe
00
00
01
fc
fb
06
ef
e4
03
f2
ec
f2
fa
09
0a
0d
0a
fb
fd
fb
f7
f5
f6
00
04
02
03
05
02
01
fd
fe
ff
01
ff
09
02
04
07
fa
01
f4
f3
f7
f7
f2
f6
fc
fd
fc
f8
f8
fa
fa
f9
fb
fc
fe
fd
00
ff
fc
fd
fa
fb
f6
f6
f8
f1
01
0b
f8
fe
0b
07
fa
00
0a
06
06
01
f8
f3
fc
fc
00
fc
01
fc
03
0c
f8
0b
11
fb
fe
fc
fe
f8
fa
f6
fc
00
00
05
06
07
f6
fd
fc
f5
fa
f7
03
f9
f8
f9
f2
f5
f7
fb
ff
05
0c
13
fe
fd
07
f3
f3
f5
f3
f3
fc
fb
f9
05
00
f7
ff
fb
fb
0a
f9
f6
fc
04
f5
ed
fa
f2
ef
ff
f2
f2
03
fa
f9
02
03
06
06
02
08
0e
05
08
02
ff
04
00
ff
04
f6
f6
f7
11
fc
ed
10
ff
ff
01
fd
0b
fd
ff
01
fd
fe
fe
fe
fe
fd
fa
fc
00
f7
f5
fb
f7
ef
f4
04
fd
fb
02
01
fc
ff
fe
fa
fe
f3
f9
0f
00
08
05
fc
0b
09
07
05
fe
00
fb
04
08
02
fb
fa
00
07
fe
06
09
01
02
0b
05
fb
06
fd
fa
fa
f1
f7
01
fc
fd
f6
f2
f7
fa
04
04
0a
04
00
06
05
ff
f8
fe
f7
06
07
07
09
0d
0d
00
04
fe
04
fd
02
09
02
10
fd
f5
11
ff
03
ff
f6
01
fa
f6
f8
f6
ff
fd
fe
01
01
ff
0d
11
01
05
ff
00
0c
0b
08
12
13
0b
ef
f1
fe
f2
02
08
07
18
15
00
fc
fb
02
fe
01
fc
f9
07
02
fe
ff
02
06
02
ff
08
04
fd
fc
fd
ff
00
fe
fd
ff
fd
0b
09
03
08
04
00
ff
00
ff
fd
fb
fb
fb
fe
fb
fc
fe
ff
fe
00
ff
00
05
02
ff
02
fe
f0
f2
f2
ef
f2
ef
f8
fc
f8
08
07
01
fe
fe
fa
fe
00
fe
fe
00
fc
fe
fa
fe
fc
fb
fc
fc
f7
f8
fa
f6
fb
fc
f9
fd
05
06
ff
f5
f7
f6
f3
f4
f6
09
04
06
0a
08
06
fc
f9
fd
07
09
06
02
03
fe
fb
f9
fa
fc
00
fe
09
0b
0b
0b
0d
0c
04
07
04
05
05
03
fc
03
01
04
01
ff
00
02
fe
01
01
ff
fd
ff
fb
02
05
fe
03
03
ff
ff
fd
fc
01
fd
00
fb
fa
fc
02
03
01
fd
01
fb
fa
fb
fc
f7
fe
f6
01
09
05
fe
08
04
0d
03
05
05
01
01
fb
00
ff
04
02
0d
03
ff
04
03
fa
fa
06
06
06
04
03
03
f9
fa
fb
05
02
05
05
07
0c
ff
fe
03
04
02
04
05
06
03
ff
fb
fb
03
00
fb
04
fa
fa
fe
f7
f7
fa
f8
f8
00
00
00
00
00
01
fc
fe
fe
fc
fc
ff
fd
fa
fc
06
0b
0a
02
ff
04
02
03
03
02
07
0d
05
0a
05
0a
04
fe
0b
09
06
01
fe
02
01
02
07
04
ff
01
00
fe
fb
00
00
fe
01
fb
fb
fa
f8
f4
f7
f7
f6
01
01
fc
0c
06
06
0c
07
08
fb
fc
f8
fe
fe
ff
fb
f9
fc
f8
f9
fa
f9
fb
fc
fe
05
04
01
fb
f6
f7
f5
eb
f2
f4
e9
fc
00
00
fa
03
fd
fa
fb
fa
04
0d
07
0e
19
0c
02
10
05
03
f9
fd
07
00
05
00
fc
fd
f9
01
f6
03
0f
01
f7
04
f9
fe
04
07
fa
fd
fd
fb
fd
fc
03
04
01
fb
fb
fb
f6
f7
f8
07
0c
06
0d
0c
0a
00
03
fe
07
01
01
01
00
02
fe
fa
fe
0b
05
05
0b
06
0a
02
02
02
05
06
02
fd
00
fd
f9
fc
fb
fa
f9
f7
08
0c
0b
f2
f5
f1
f7
f7
fd
f2
f1
f5
ee
f0
f3
01
01
ff
00
00
00
ff
00
ff
fb
fc
f5
fa
fa
f8
05
07
03
01
01
03
ff
fb
fc
00
fe
fd
00
fd
ff
fb
f9
fa
f7
f6
f3
01
fd
ff
05
03
04
ff
00
02
00
fe
04
fa
f9
f7
f9
f9
f8
ff
fd
fd
fe
f6
fa
fe
f7
f7
fb
f7
fb
01
fd
ff
04
01
02
fd
f8
fe
fc
fc
fd
00
00
ff
03
fe
ff
00
00
fc
00
fe
f8
03
03
01
03
04
05
ff
00
02
fd
04
f9
07
0b
05
fc
ff
fc
02
07
06
05
05
07
ff
03
03
0c
0e
0d
01
02
fd
fe
fd
fd
02
fa
fc
fe
f9
fb
06
04
02
fd
01
00
02
05
ff
04
07
fd
08
07
03
fd
fb
f8
fa
f6
f4
03
02
ff
00
fd
fd
fd
ff
ff
fc
02
04
03
06
06
01
03
00
fe
fd
fd
ff
fb
fa
02
fa
f9
01
06
04
02
ff
fd
09
06
02
08
0f
0a
01
00
05
fc
01
0c
05
02
03
fe
f9
fe
00
f7
fb
05
00
fe
02
fc
f9
02
fd
fc
0c
08
03
02
ff
fa
04
fe
ff
ff
fa
04
00
01
0e
05
04
0c
02
02
fd
04
05
02
ff
fe
ff
06
06
06
0c
09
0c
0b
08
0d
0e
0e
07
09
01
fc
12
06
ff
fd
f9
f7
f7
f4
f4
fb
f6
f6
01
00
fb
01
fc
f4
fc
f6
f0
00
07
09
fd
00
05
fa
fa
fb
00
00
fd
02
00
fd
02
ff
fd
fa
fd
fa
f9
f7
fb
fd
00
ff
04
fa
fa
fb
f1
f5
ff
f6
f6
00
03
09
08
08
10
05
ff
09
fd
02
0b
02
ff
0d
02
fd
0e
04
03
08
fe
f7
fc
00
fd
fe
04
fd
fa
02
01
03
00
02
04
fb
00
02
fa
f7
f9
fb
f8
f8
ff
fd
fb
fd
f9
f9
fe
f8
fc
0c
02
06
05
fc
00
07
fc
ff
05
ff
07
ff
f8
02
03
fe
04
13
0e
07
02
f9
f8
03
fd
fa
08
03
fd
02
f5
fd
f9
eb
f8
ff
06
00
01
01
fd
02
ff
fe
05
06
06
07
04
00
06
03
01
07
06
06
06
05
02
01
00
05
00
ff
04
f6
f8
fb
f8
f4
f9
02
08
0a
04
ff
fe
04
01
fa
00
05
02
00
01
00
fd
fe
ff
ff
05
02
08
08
09
ff
ff
05
04
03
01
05
00
03
08
05
0a
fe
fe
fc
f1
f5
f8
00
05
04
03
08
11
fe
ff
07
fd
fa
ff
00
fb
f9
f8
f5
ed
06
00
fa
0c
05
fd
07
fe
fc
04
00
00
06
07
16
fa
f4
fb
02
f7
f7
07
fe
ff
08
00
02
ff
fc
fe
f8
f6
04
f8
f7
0a
f9
f5
00
04
04
03
01
02
01
fb
f5
fd
04
ff
fd
09
03
fb
07
04
fa
fa
fe
03
fe
f9
fe
00
fa
fa
08
00
02
03
02
0c
fb
fc
0e
00
ff
00
fd
fd
fe
fe
fe
fd
01
f8
fa
f9
f0
f0
f9
ef
f1
ff
04
0a
fb
01
04
f9
fb
fc
02
fe
fc
0a
03
fe
08
00
01
fa
f8
f8
f7
f4
f4
fd
f7
f6
fc
fd
fd
ff
02
01
fc
ff
03
05
07
01
08
04
fd
04
fb
fd
ff
fb
fc
fa
f8
f9
04
00
06
02
fe
08
fd
ff
0a
00
04
0e
ff
00
0b
fe
01
0c
01
04
08
fb
ef
f3
ff
ed
f3
00
ee
f6
02
07
06
02
fe
fe
fc
f8
f7
f7
f6
fa
f8
fa
02
fa
fd
07
f6
f4
ff
05
09
12
08
0b
0f
fa
f6
02
fd
fd
09
fe
f9
02
01
02
00
05
fe
fc
05
ff
fd
fb
ff
00
01
00
01
0a
0a
09
04
ff
0a
fc
fa
06
fd
fe
05
04
07
07
fd
02
02
fb
03
05
05
02
01
00
fe
01
fc
fd
ff
ff
fb
fc
fc
ff
03
fd
00
ff
06
0d
06
02
0b
02
f8
00
ff
06
02
fe
08
02
fe
02
fb
f8
fa
fa
fb
01
04
05
00
01
00
05
04
0b
09
04
0a
f9
f6
fc
ff
ff
09
05
02
07
fe
fc
fc
fc
fc
00
04
03
01
fa
fb
fc
05
0b
08
fd
04
06
f7
fc
02
f6
fb
fe
03
09
08
fd
04
ff
f9
f9
fb
fd
f7
fa
fa
fb
fa
ff
ff
f8
01
02
fe
fc
04
01
f6
f3
fc
f4
f0
f5
f7
f8
f9
fc
fd
fb
fb
fc
f8
fd
fc
f7
fd
fe
fe
00
04
09
07
0a
09
f9
f5
fd
ff
fd
ff
fe
fc
ff
00
01
ff
03
02
ff
fb
04
ff
ff
09
0c
fb
03
09
fb
04
0b
07
07
03
01
02
04
ff
00
0a
09
04
ff
08
02
fe
fe
fc
00
f8
f6
fc
fb
fc
04
fe
02
06
fd
01
f8
fb
f9
f7
01
fe
00
00
01
fd
ff
03
fe
f9
ff
fa
f6
02
f7
00
07
fd
ff
03
f7
f7
f7
fa
fc
03
01
fb
01
ff
f5
fc
fd
f8
fe
03
f6
f5
fd
01
07
05
01
07
05
08
0c
0c
02
fd
fe
02
00
fe
fe
02
fe
09
00
05
f9
f5
f9
f9
fd
fc
02
fe
00
00
fe
fb
fe
fb
fc
f8
f8
fa
02
00
04
03
02
03
06
00
01
fd
ff
00
fd
ff
05
0d
03
0a
04
00
04
00
07
0d
f8
00
02
fd
02
03
fb
ff
02
00
fd
04
fe
ff
0a
fd
ff
04
04
0c
00
fe
08
fa
fb
02
ff
f2
ee
f0
f8
f5
f7
f8
fa
fc
fc
04
03
fc
05
02
fa
02
00
f9
02
f6
04
06
ff
08
0c
04
02
08
0e
f9
fe
03
f6
fc
fb
f2
ef
f6
f6
f5
f8
f4
f6
fc
02
03
fd
fe
ff
f6
f8
fe
f7
01
fd
00
fe
ff
fe
fd
fd
f9
fe
fc
fb
f7
f9
f9
fc
fa
fa
04
0b
0f
fb
fe
06
03
00
04
fd
fc
fd
ff
fe
fd
00
00
fe
ff
02
fd
00
06
00
07
0c
0b
00
03
04
fe
05
05
01
04
03
0c
08
0e
ff
f8
00
fb
fb
02
04
02
04
0a
03
ff
fe
fd
fd
07
07
01
fd
fe
fa
fa
fd
fd
f7
ff
fc
00
0b
fd
fb
00
fb
06
01
02
0d
08
06
fc
fa
fd
fe
fe
05
f8
f5
fa
f4
f4
fc
06
05
08
00
01
05
fd
fc
fd
01
09
0b
fc
fa
f9
f6
f6
f2
f7
f7
fd
f5
fa
fd
f9
fa
fc
f9
01
fe
00
07
00
f9
01
ff
10
0f
10
06
08
0c
fa
00
03
03
04
02
fd
00
00
fa
fc
01
fb
fa
02
fd
00
03
01
07
04
02
02
00
06
06
03
08
06
04
00
fc
ff
fd
fc
fc
ff
fe
00
01
02
04
03
02
02
01
04
00
02
02
01
03
01
00
03
00
00
fe
01
fe
00
02
ff
ff
03
ff
ff
05
02
02
05
02
00
02
ff
ff
03
00
06
07
02
02
04
fe
fd
fd
fe
fd
fe
fd
fe
fd
fd
00
03
02
01
01
ff
fc
fd
fb
fe
02
01
03
01
fe
06
01
fa
01
04
01
02
02
ff
00
fe
fc
03
02
03
00
fe
fe
ff
fd
fd
fc
00
fe
ff
05
01
fe
04
fe
fd
ff
fd
01
00
01
02
00
ff
00
04
02
fe
02
01
00
04
00
fd
fb
fc
fc
fb
fe
fe
00
fe
fb
fc
fc
fc
fb
fe
fc
fc
ff
02
ff
fd
01
02
fe
05
02
ff
ff
01
01
03
03
02
02
06
03
ff
02
00
02
00
ff
01
00
fe
06
01
ff
02
fc
fb
fe
fa
fd
02
01
fe
04
02
fe
03
00
fe
04
06
04
02
03
02
01
02
00
02
fd
f9
fd
fd
f9
00
fe
fb
00
00
fb
02
fc
fa
04
fd
fd
fb
ff
ff
fa
fd
01
fb
fc
00
fe
fd
fb
fe
ff
fe
00
03
01
fe
fc
fd
fe
fb
fc
ff
fd
fc
08
00
fc
01
ff
fa
fd
fd
fb
fc
ff
00
00
01
01
02
00
00
02
02
ff
03
03
00
04
03
00
01
00
fd
02
ff
fc
ff
ff
ff
03
03
03
03
01
00
fe
ff
00
fd
fd
ff
fc
fb
fc
fd
fd
ff
00
fe
01
00
ff
fe
03
ff
02
01
01
ff
05
fd
fa
04
fc
fc
04
00
00
00
ff
fb
00
fe
fb
02
ff
fd
04
03
01
07
04
01
03
06
03
03
03
fe
01
01
fe
f9
fb
f8
ff
fe
fc
04
ff
fd
01
01
fe
01
00
fa
fd
fc
fc
00
04
00
fd
fc
f9
fc
fe
fb
00
06
01
fe
00
00
fc
00
fe
f9
fb
fd
fd
fd
fe
fe
fd
00
ff
00
00
02
fe
00
ff
fe
01
fe
04
00
fd
fe
fe
fd
ff
00
ff
fe
00
fe
fd
fc
fd
fe
fb
08
04
00
04
00
fd
02
00
fe
ff
01
fe
fe
fe
ff
01
00
00
01
fe
fe
ff
fe
fc
01
04
01
00
fe
ff
ff
fb
fe
ff
fe
01
01
ff
fe
fc
fe
fc
fe
ff
fe
fb
00
00
fe
00
ff
00
02
fe
00
06
04
ff
02
fe
ff
00
00
fe
00
03
fc
01
00
fc
00
ff
02
03
03
01
ff
ff
fe
fc
fa
ff
f9
ff
fe
f9
ff
ff
fb
ff
00
ff
ff
01
00
fe
ff
01
ff
02
04
00
01
05
ff
04
05
00
01
03
04
02
05
04
01
03
01
fe
01
03
fe
03
00
ff
ff
fe
09
05
06
05
ff
01
05
fe
ff
ff
00
03
fc
ff
02
00
02
01
05
0b
01
02
08
ff
01
07
01
09
07
07
0a
05
04
06
04
00
fe
fd
fa
fb
fc
fc
fd
00
00
01
03
06
00
02
01
ff
ff
ff
fd
fe
fd
fe
00
00
fe
fe
fe
fe
fb
fd
fd
fd
fd
01
00
01
02
01
03
fe
fa
fa
fe
fc
fe
00
fd
fc
fb
fb
fb
ff
fe
fc
fb
fc
fe
fd
fc
fe
01
01
01
fb
fb
f9
fe
fe
fe
04
05
02
fe
fb
fc
f7
f8
fa
f5
f6
f9
0a
09
08
05
05
01
00
00
fe
ff
03
01
fe
ff
fe
fe
ff
fe
03
03
01
00
fd
fb
00
fb
fc
05
03
07
07
04
03
03
fd
ff
03
02
03
fe
01
ff
fc
fc
fe
01
fd
ff
fb
f9
fb
fc
fb
fb
02
01
00
fe
fd
fd
01
02
01
03
05
02
ff
02
ff
ff
ff
00
03
03
05
00
fd
fe
05
ff
03
02
00
fa
fd
fd
fb
fc
ff
ff
ff
00
00
00
fe
fb
01
fe
fb
03
02
05
00
fc
fe
ff
ff
fe
01
fd
02
fc
fe
ff
ff
00
00
01
fc
fe
fd
fb
fc
01
00
01
01
ff
fe
01
00
02
05
01
01
00
01
fe
03
06
03
09
0d
0a
ff
fa
fc
fc
f9
fb
00
fe
00
03
05
07
01
ff
05
00
ff
05
00
01
fc
01
ff
fe
02
02
fe
fc
fb
fd
fe
fb
fb
02
01
ff
ff
fd
fd
fc
fc
ff
fe
fc
ff
00
03
01
fb
ff
01
00
fd
01
01
03
01
01
fc
ff
03
03
04
01
00
00
fe
fd
ff
00
fe
00
04
00
02
00
00
fe
ff
fd
fe
02
05
fe
ff
02
fe
fc
fd
ff
03
04
01
04
03
00
fd
fc
fc
02
02
04
ff
fe
00
fe
fd
ff
02
ff
00
fd
ff
fe
fe
fe
ff
fe
fd
02
fb
f8
fc
f6
f4
f7
ff
00
00
00
fd
fd
00
00
ff
09
0b
0a
02
fe
02
01
fe
03
fb
fc
fb
fd
f9
fb
fe
fa
fd
01
ff
fa
00
ff
fd
00
00
fe
ff
ff
00
01
fd
01
03
fe
ff
fd
fe
fc
fc
fb
fb
fc
fd
fb
02
03
06
00
fe
ff
00
fe
ff
00
03
01
02
01
fe
06
fe
fa
02
01
00
00
fe
01
ff
00
01
00
01
04
00
fb
fd
0a
07
08
02
05
05
02
ff
01
ff
fd
fe
00
00
ff
fe
fa
fc
00
fc
fd
0a
06
07
02
fe
fc
fb
fb
fc
03
fe
fb
08
03
fa
05
ff
fc
01
00
ff
ff
fb
fc
f8
f8
f7
06
08
06
04
04
01
fe
ff
ff
fe
fc
fe
00
fd
fd
06
04
02
fe
f9
fb
fc
fe
fe
fb
fa
fb
fc
04
03
01
04
08
05
08
09
02
03
04
05
0b
05
0a
0a
0a
01
00
00
00
ff
fd
02
01
00
fa
f8
f7
fe
fe
ff
ff
00
fd
04
03
fe
01
06
03
02
07
05
04
07
03
02
00
01
ff
fc
00
09
fe
08
fe
f6
03
f5
f6
fc
fc
f9
fe
fb
f9
00
fb
fd
04
f8
f5
fd
01
01
06
fb
f9
fa
04
fd
fd
07
ff
ff
08
fd
f9
04
0d
0c
fa
ff
ff
ff
fd
01
0a
07
09
04
00
04
01
f6
05
f9
fa
02
f9
fa
07
08
02
03
fc
fc
fc
00
fc
fe
f8
f7
fa
06
03
08
00
fe
02
03
f9
01
fa
f3
07
00
fa
12
14
01
03
fd
fc
02
02
fd
05
02
fb
fe
00
fb
fc
03
fd
01
00
03
0a
08
05
04
fe
ff
fd
02
06
05
f5
f4
fe
f8
f8
fc
08
0a
08
07
05
09
0f
0b
0b
fd
fa
ff
0d
03
0a
0e
0a
13
0a
0a
0e
fd
fb
fc
fb
f9
fc
f8
f7
f9
0a
08
0b
06
02
03
fe
01
04
f6
f3
f4
f3
f1
f4
fc
fa
f8
f5
f9
00
fb
fb
01
0d
fa
fe
fd
f7
05
05
f9
03
0d
03
0e
ff
f6
f8
01
fa
f8
19
11
0f
fd
fa
f9
ff
f9
01
fc
fc
fe
02
f5
fa
06
f8
fd
0b
04
07
f3
ed
ef
f6
f4
f4
03
04
04
03
06
09
ff
02
08
04
fe
05
0d
0f
11
00
ff
03
fc
fb
ff
ff
f7
f9
f8
f2
f3
fd
f8
f7
fb
e9
f3
fe
e8
ef
ff
fb
0f
01
ff
04
ff
ff
03
fd
fd
fb
ff
00
04
00
fe
ff
09
02
00
00
00
ff
03
02
05
0a
06
09
f9
fe
fc
ec
ee
ee
f7
f7
f9
fc
fc
fe
f7
f3
f4
fb
f8
fa
05
ff
ff
03
ff
fb
fd
fb
fb
fa
04
09
f6
fe
07
08
01
07
09
04
09
02
fc
02
06
09
0e
06
04
0a
00
04
fe
02
03
00
02
01
06
f6
f8
fe
fe
fb
00
fe
f8
01
f5
f1
f8
02
03
05
07
fe
04
09
ff
01
00
00
0a
0a
0a
14
00
06
0e
f8
f6
fe
ec
e8
e7
f3
f0
f5
03
fd
05
f7
ef
03
fb
f1
05
08
f9
00
eb
e9
ee
f4
ee
f0
fd
f4
f6
f6
f9
fd
03
00
08
0a
03
07
03
fb
04
fa
f7
fb
fb
f9
fd
0c
f8
f7
08
fe
fc
fe
02
0e
fe
fd
00
00
00
00
00
fe
ff
fe
fe
00
f8
fb
fd
f4
f4
f7
02
ff
02
04
03
02
fe
fd
00
f5
f0
f1
02
f5
fd
06
fe
08
07
0b
09
00
02
ff
04
01
00
f7
fd
04
f7
f7
01
04
fe
01
09
02
05
06
f8
fd
02
fa
fd
ff
02
03
04
03
04
0d
05
0a
0a
ff
02
05
00
03
fb
ff
00
0c
07
0a
05
09
04
fb
fb
fc
ec
e9
ec
fa
f0
f7
00
f8
fd
04
00
0a
02
00
04
ff
05
04
03
01
07
f9
f9
ff
03
ff
02
fa
f2
fc
06
fa
06
0c
03
0a
ff
f6
01
00
fb
06
0b
07
0a
f3
f4
f6
fa
f9
f9
01
01
05
05
05
06
01
01
02
03
04
04
08
01
ff
05
fe
01
04
02
05
fd
fd
02
fa
f6
f9
fb
fa
fb
04
04
06
04
fd
fc
03
fe
fd
03
01
02
03
06
05
01
04
02
05
0a
08
0a
0c
0e
fc
fd
fe
04
fb
00
0a
03
00
07
fe
01
fe
f9
fb
03
00
00
08
06
06
04
06
0a
02
00
07
03
fb
06
09
ff
ff
17
08
03
0a
02
fd
02
05
07
05
05
08
03
01
02
01
04
07
fe
fd
03
f9
f9
fc
05
00
06
fc
fb
fe
ff
fc
02
04
03
03
04
04
06
01
ff
ff
fb
ff
01
00
02
03
fd
fd
00
00
05
07
fe
fe
01
01
fe
fe
fb
fb
f9
fa
f9
fa
fd
fe
fc
f5
f4
f5
fd
fd
fe
01
00
00
fa
fa
fa
f0
ee
ee
f5
f2
f1
fe
fa
f6
04
ff
fb
f8
f7
fc
f7
f8
02
f7
f8
08
f8
f7
04
fd
f8
ff
f8
f0
f7
fa
f5
f9
01
fd
fa
05
04
01
01
fa
fa
00
fc
04
00
fc
00
02
00
01
03
ff
00
01
fb
fe
02
fe
ff
09
06
06
07
04
06
06
06
07
03
00
07
01
fe
03
07
04
08
05
fe
ff
08
07
06
08
07
09
fd
02
0a
fe
01
0f
01
01
0a
ff
ff
04
03
03
06
07
06
07
00
00
fc
fb
fa
f9
fb
fb
fa
09
04
fd
00
fe
fc
ff
fd
01
03
00
03
02
01
03
fd
fc
fd
fd
fa
fe
fc
fa
fc
ff
ff
00
fe
ff
fd
ff
fe
fd
ff
fa
fa
03
04
04
0c
0a
06
07
09
09
f5
f9
fa
ff
06
08
03
04
06
f5
f7
f6
f7
f5
f8
fa
fb
fd
04
05
04
f8
f4
f8
f5
f4
f7
03
fe
fd
03
02
00
08
08
03
01
fe
00
ff
ff
08
ff
ff
03
f9
f0
f8
fa
f2
f6
fd
fa
fd
fe
fe
03
f3
f4
ff
f4
f4
fa
05
ff
fe
06
fc
ff
00
fb
fe
fa
fb
fa
fb
fb
fb
fb
f8
fa
07
06
06
ff
fd
fc
f9
f7
f6
fa
f4
f9
fc
fb
f9
06
02
01
0c
06
05
08
06
07
09
04
00
ff
ff
00
00
01
02
02
00
02
ff
00
fe
f8
fb
fc
01
05
04
01
01
09
f7
f9
ff
f9
fa
fd
ff
01
04
fe
fe
00
f9
f8
fa
00
ff
01
08
04
08
08
03
07
fc
fd
fb
04
02
02
fd
fc
fc
01
05
05
01
04
04
05
03
ff
05
05
03
0f
0e
0c
08
03
04
ff
fe
ff
f8
f4
f9
fe
f8
fc
fb
fb
ff
f5
f2
fa
f7
f9
fd
ff
fc
04
fe
ff
01
fc
f9
ff
ff
ff
03
00
fa
fd
00
fb
fc
03
06
04
03
05
06
fa
f6
fc
f8
f7
f6
f5
f6
f7
fa
fa
fa
03
05
08
01
fb
fd
fa
f6
f9
fb
fd
00
f8
f9
fe
fa
fb
fd
f9
00
08
f8
fa
04
f5
fa
00
09
06
03
01
04
04
ff
00
fe
f7
fb
06
fa
fc
09
fb
f8
ff
01
fd
f9
ff
ff
f9
ff
ff
fe
04
03
01
fe
06
0c
f9
ff
00
07
00
01
04
fd
0b
fc
f6
fd
14
06
03
0a
05
03
fd
fb
fe
08
03
fe
fc
fd
fc
fe
fd
00
f3
f7
f5
fe
02
fd
06
05
01
09
fd
03
03
03
05
f7
f6
fc
f5
fe
05
ff
fd
06
01
fd
02
01
fd
00
06
00
01
04
ff
fd
f7
fb
fe
fd
05
fb
05
09
04
fc
fb
04
fb
fa
05
f7
f5
fe
f9
04
03
00
06
fd
ff
ff
fe
02
06
09
fc
fd
04
f3
f6
fd
ff
f9
fa
f8
f7
f8
fb
f9
fa
fa
fb
f5
f5
f5
fd
f9
f7
f8
0c
04
02
fe
f8
fa
f6
f5
fa
0c
06
00
0d
06
f8
06
fa
f0
05
0a
fc
02
04
f9
01
fb
f2
00
05
fd
ff
02
f6
f9
fc
f7
f9
fb
fb
06
06
05
0a
09
04
fa
fd
01
ee
f6
00
f2
f5
fb
01
00
f9
fe
05
fe
f7
00
fe
fc
f8
fc
09
03
03
0e
0a
09
14
08
fd
02
fa
f5
0b
06
00
fd
02
ff
fc
fc
fa
ff
fb
fc
02
01
f7
fa
f9
f3
fa
f8
f0
03
03
01
00
01
04
08
06
04
00
00
05
fd
fd
00
fc
fe
07
06
07
09
0d
0f
13
06
07
0a
03
fd
05
f7
fb
ff
fa
fe
ff
04
01
fa
fb
fe
fe
ff
00
ff
f9
fa
f4
fc
fb
f9
00
03
01
0a
0b
09
14
0d
0b
15
0b
02
00
fd
fc
f8
f7
04
f4
f2
f7
fb
fe
0b
00
fe
07
fc
fd
fe
01
01
fc
06
02
f6
07
01
f8
fa
ef
02
03
fb
11
fb
01
14
0d
0a
00
04
fd
f6
01
f8
f1
0f
01
f6
fd
f4
ed
01
fc
f6
05
0a
0b
fd
ff
fb
fb
fa
f6
04
07
04
fc
fb
fa
fc
f5
f2
06
05
08
fe
01
00
f6
f9
fe
00
01
09
f8
f8
fd
fc
f8
fa
05
00
f9
fb
f9
f8
02
00
fd
05
f6
e9
11
02
fb
fe
fa
f6
01
ff
fd
01
ff
00
ff
ff
00
05
fa
fb
fa
f8
01
ff
02
06
05
05
01
fd
fd
f6
fc
fb
f9
f6
ff
01
f4
f5
f5
fa
f7
f6
fd
02
04
07
08
06
07
0d
0c
fe
fe
04
09
0b
0c
0d
0a
08
03
08
09
f6
f9
fe
f5
f7
f8
00
02
07
fe
02
05
00
03
02
03
00
03
fc
fa
ff
fa
f9
fd
01
06
05
03
fc
f2
08
fb
ed
f5
f1
f5
f2
f6
f5
f3
f7
f9
04
00
03
fc
ff
08
fa
f6
f7
06
09
0e
fe
02
07
01
fb
f4
ff
fd
01
fb
f8
ff
01
01
03
fe
02
01
fb
f6
f0
05
fd
ef
01
fc
03
0b
03
02
07
fe
06
f3
f1
f1
f5
f6
03
fb
fc
01
00
fe
fd
00
03
04
fd
ff
00
fe
02
04
02
fe
01
00
fd
fd
01
01
ff
fe
fd
fd
fd
fc
fd
03
fb
ff
0a
06
03
03
02
01
f5
f9
fe
03
ff
06
f9
f9
fd
04
01
03
08
00
fc
05
03
fc
fa
fb
00
fd
ff
00
01
02
03
0a
06
01
fb
f9
f7
03
02
01
11
14
16
1b
10
04
14
10
09
00
01
02
02
04
05
06
0c
07
02
01
01
fe
fd
00
f4
f5
f7
0d
0c
0c
fb
f9
fd
fa
f8
f9
fc
fc
ff
fa
f8
fe
fd
ff
02
fe
07
07
0f
0b
0f
fd
fe
02
f8
06
0a
07
08
0d
01
02
06
03
00
01
02
ff
fd
02
fe
fc
00
fd
02
fc
f5
01
fa
fb
fd
fe
f7
f4
f9
f1
f1
01
fa
f9
01
06
05
10
0e
02
07
09
ff
03
04
f8
fb
fd
fd
f7
f7
fe
00
ff
f6
0b
07
01
0c
09
0a
00
fe
f6
f7
f8
fb
f3
f7
f9
fc
ff
00
04
ff
06
fe
fc
05
01
fe
02
fb
fd
fd
fc
fd
02
09
05
00
04
00
fa
fe
01
fb
f1
f1
fd
f4
f2
f7
04
02
01
00
fa
fc
01
00
00
05
09
08
00
01
fe
f5
fe
09
f3
fa
05
fe
01
04
00
ff
01
fe
01
00
ff
01
ff
fa
f7
f3
fa
f9
f5
00
fd
05
fe
fb
fd
00
fd
fb
03
01
07
fd
02
03
ff
fc
fd
f6
f5
f7
fe
ff
fc
ff
00
ff
fb
fb
fa
f4
f1
f5
f7
f7
fe
f8
f7
ff
0c
0d
08
10
18
07
f1
f6
00
fa
03
0a
06
0d
0c
ff
fe
05
01
fe
0b
ff
fa
00
01
03
f8
00
05
fe
00
ff
fd
f6
f2
00
00
fa
09
08
05
08
06
04
04
fa
fd
05
fb
fc
00
f4
ea
ef
f9
ed
f0
ff
f9
f5
09
fc
f6
06
01
05
f5
f3
02
f9
01
00
fd
fe
fe
05
09
06
01
06
02
04
07
06
01
ff
02
02
05
0e
06
04
09
fb
f9
fd
f0
ee
f0
f3
f1
f7
fd
fc
00
ff
fa
f6
f7
f9
fc
f8
02
05
00
00
01
00
00
fe
01
ff
01
ff
fb
00
fd
f7
fa
fd
fb
ff
01
01
ff
07
07
0b
03
01
06
04
06
04
fe
fb
fe
f4
f2
f8
f7
f4
f5
08
0d
10
10
0f
10
03
fd
01
01
fc
fc
01
ff
fc
fc
09
0c
f8
f7
fe
f1
f2
f5
00
00
00
ff
00
02
09
09
08
02
02
f8
f8
ff
fe
fc
02
04
f7
f7
ff
f1
f4
fd
fb
fe
00
14
11
05
03
02
fc
fa
fb
fb
08
06
0d
03
03
06
f8
fc
fc
00
03
07
fe
fe
01
f7
f6
f6
fe
02
02
ff
01
04
ff
00
01
04
07
02
01
02
fb
ff
fd
fc
08
03
fd
fc
fc
fb
f7
f7
f7
00
00
fc
f7
03
04
fc
00
ff
03
06
00
fe
fe
fb
ff
fc
fa
fd
02
fc
fc
03
02
fc
fe
04
01
01
02
01
00
03
fe
00
03
03
07
03
fa
fe
03
fd
03
06
09
07
03
fa
fc
fb
fa
fe
fb
08
06
07
f9
02
08
f6
0a
10
00
03
03
00
03
02
ff
04
01
fc
fb
00
f3
f2
02
f9
f5
ff
0a
fa
fc
fe
fb
fa
fb
08
11
fd
fb
ff
f5
f2
00
fd
fb
03
ff
00
01
06
07
ff
09
05
00
fe
05
04
fa
fd
0a
f7
f4
03
00
fc
fd
f9
fb
01
fb
fd
00
02
06
fe
f7
f8
fa
f3
f0
f9
01
01
ff
0a
05
01
05
05
05
fd
fc
fc
fb
ff
ff
03
06
06
0b
0d
0c
02
fe
02
02
fe
fd
f4
00
07
f1
04
06
f5
05
08
01
f8
fe
04
f6
f5
02
fa
f8
fc
00
03
fb
01
fa
0c
fe
f7
00
fd
f2
fa
f6
f2
f3
f8
f9
08
ff
fd
fd
fb
fe
00
ff
00
03
09
00
01
03
fc
fc
00
ff
fd
08
05
f4
04
ff
f1
fb
f8
fa
fe
fc
01
fc
f9
03
ff
fb
09
0d
0b
00
00
fe
05
04
01
04
09
04
00
f9
fc
06
fe
fa
01
0d
16
f4
01
fe
01
f6
ef
07
06
01
fb
fb
fb
fc
fe
00
f9
f8
fd
ff
ff
02
01
02
03
fa
f9
06
fe
04
08
05
04
04
fd
fe
00
f7
fa
fa
f4
fb
f6
05
01
fe
01
01
00
ff
fd
00
07
01
00
09
06
07
01
02
03
fe
f1
03
0a
04
09
0f
0a
03
05
01
0b
fc
fc
05
07
06
05
08
0e
0c
08
0f
10
12
14
0b
fd
fe
fc
f5
f8
f9
ff
fa
f9
01
03
02
f9
f9
02
f6
f9
fe
f4
01
02
f7
00
fc
02
02
fc
fa
f9
fb
f9
f5
fe
02
fd
05
f6
ff
f5
f3
fc
f3
f2
ff
f6
10
01
03
01
f5
f4
fe
f9
f9
ff
03
03
fc
0a
08
f6
fe
fe
fb
fe
fe
ff
05
00
fc
04
04
f7
f6
f8
f4
f3
f3
03
05
04
ff
f8
fd
09
04
08
06
08
0a
00
00
00
00
fd
fc
01
fe
ff
f9
04
fd
f2
00
f7
f3
01
f7
fb
01
fe
fa
ff
fe
fc
fb
fd
f7
fa
fe
03
0b
02
03
07
fd
00
00
fd
f7
f9
fb
f7
ff
fb
01
03
04
04
0a
0c
06
0f
11
fa
f7
f9
fd
00
00
fb
ff
fd
05
02
09
fd
00
02
f9
03
fd
04
fd
fd
fa
f6
fa
00
f8
fa
05
09
01
02
04
fd
14
0a
03
f5
01
05
f9
0d
0f
f5
08
07
0d
0d
08
02
05
02
fb
fd
fe
06
01
04
fa
f5
f6
00
fa
f3
04
f9
fd
09
00
fd
0b
04
04
17
09
07
03
fd
f6
fd
f5
f3
f3
fc
fe
f7
07
ff
fc
0b
03
02
0d
0e
ed
f7
04
f4
fa
f9
03
03
04
06
04
06
05
00
01
0d
13
02
fb
01
05
f8
f2
f4
fa
fa
fd
fc
fd
fb
fc
fe
ff
00
00
fb
fd
00
02
fd
03
03
00
17
06
f5
07
f9
f6
fc
fe
fb
01
04
fc
0d
08
fc
0a
07
f8
fc
f8
02
05
01
02
fe
fe
01
fe
08
ff
f9
fc
09
fd
fe
13
09
f7
fb
f5
f9
f4
f6
01
fd
00
01
f5
fa
02
f7
fb
fb
01
fd
01
fd
f9
f8
04
00
fa
f8
f8
01
ee
e9
f1
fc
ef
f5
f2
fa
fe
f5
08
10
01
0f
14
ff
02
01
fe
00
fe
fa
fd
fd
07
03
fc
07
04
02
02
fc
fc
f9
fb
f9
fd
fb
fa
fc
fd
fd
f6
f9
fa
f8
fe
03
fe
04
06
f9
ff
fa
ff
f9
f9
03
f7
fc
fd
04
02
fa
fb
ff
f2
f8
ff
01
00
07
fd
fd
01
02
ff
fe
fe
08
08
0b
10
11
02
06
0b
07
fe
09
fa
f3
fd
ff
fb
fd
0b
08
05
16
0d
10
09
04
06
08
10
14
f6
f4
fe
ec
e8
ed
fa
f7
fa
fc
fc
fb
08
09
05
ef
f1
f1
f2
f4
f3
f5
f7
f9
fc
01
0a
07
08
18
17
0c
15
04
04
11
f8
fa
00
02
fc
f4
ff
05
fd
f3
fd
ff
03
05
06
00
fc
fe
fa
fb
fa
ff
02
02
08
0a
0c
02
02
ff
fd
fd
f4
fa
fd
fe
06
04
fb
03
fe
fb
fb
fa
fa
fb
fc
fd
fc
fe
ff
00
09
0a
03
04
08
09
03
03
0e
05
10
0c
f9
f4
f9
f8
f0
f7
f7
00
f5
f9
fe
01
ff
fc
01
0c
0f
f7
01
07
f9
fe
01
03
f6
02
f9
f0
f8
fa
f8
fc
ec
f8
fc
ef
02
05
f6
0b
0f
fd
fc
05
02
fe
0b
07
00
05
fa
f9
fb
04
05
00
ff
ff
fe
f6
01
f6
01
00
01
04
01
fa
0c
00
03
01
f9
fe
04
01
0a
0b
09
fe
fa
f5
fb
f7
ec
f6
03
fe
f8
08
05
fe
05
07
02
f9
ff
00
f8
f9
fb
f6
f6
f8
10
02
02
f8
01
01
f2
fa
fb
fe
fe
fc
ff
fe
fd
ff
ff
00
f9
04
f7
fc
04
ff
f7
f5
ff
ff
fc
05
02
03
08
04
04
02
10
04
04
0b
00
00
00
fe
fa
ff
04
08
0a
0a
0e
0a
0b
0a
02
16
14
f8
0f
07
ea
fd
f8
06
12
08
f7
00
ff
f4
f2
f1
f7
fb
fc
fc
fa
ff
08
03
06
f5
f5
fe
fd
00
04
03
08
09
fc
fe
05
fa
fb
01
fb
03
fe
f9
f8
fb
04
01
04
03
ff
07
f8
01
fb
fa
0a
09
f6
fe
03
02
07
00
03
ff
00
02
fc
fd
09
04
01
02
03
01
04
0a
06
0b
04
03
03
f6
fb
03
03
08
f9
f8
f5
f8
f7
fa
fd
fe
00
fb
ff
fa
fc
02
02
03
02
05
fd
fc
ff
fd
f9
f8
fd
fb
fc
02
fe
f9
00
02
ff
f4
f4
f7
02
01
ff
01
fe
fd
fc
ff
fe
08
04
06
00
00
03
f9
fa
fa
00
fc
fd
fe
fd
03
f7
f8
f9
ff
fc
fc
fd
fe
01
fc
03
02
f8
fa
fc
03
03
04
04
07
03
0a
0a
0c
00
01
02
01
01
02
fb
ff
fe
fa
fe
01
ff
03
03
fc
f8
fd
09
0d
0b
0f
0f
08
fd
05
04
fa
ff
fc
f8
fa
f6
03
08
07
f7
f5
f7
fb
fa
fa
fa
f7
fa
f6
f9
ff
08
0a
09
08
05
03
06
07
0a
f1
f2
f5
09
07
04
08
06
07
f9
fb
fa
05
04
04
00
00
00
ff
ff
fd
04
fe
02
02
03
08
fe
03
02
00
ff
ff
00
fd
ff
03
03
02
ff
00
fa
07
01
f8
01
00
fa
05
09
0a
04
03
03
f9
f9
f8
fd
fe
fc
0a
0b
0b
f8
fb
fe
04
01
06
fb
ff
02
fa
fa
f6
0a
05
05
09
03
06
f7
f8
f6
fc
fa
fa
ef
ef
eb
f8
fb
f7
08
07
06
01
04
ff
03
07
02
f9
f9
fd
fc
fc
ff
fe
00
fe
fc
f9
fd
01
03
05
0b
11
0f
f6
f5
f7
fa
f5
f5
ff
fd
fa
fa
f6
f6
ff
01
05
08
0a
09
00
00
fe
f7
f4
f5
f7
f8
f9
05
02
fb
f6
f8
f4
fa
ff
02
fc
fb
fb
ff
ff
01
f6
f7
f8
08
07
05
02
02
04
00
02
ff
0a
08
07
05
04
05
fb
fd
fe
03
fe
f4
0b
09
ff
03
0f
12
eb
ee
ef
05
03
00
13
13
0f
05
02
09
fc
fb
03
f2
f3
fa
03
05
fb
04
09
01
f6
fa
f8
f6
f6
f6
f3
f3
fb
07
06
0d
f8
fb
ff
f9
f9
ff
02
02
fc
f7
fb
f8
f1
ed
f4
fe
fb
ff
f4
fe
f6
f9
fd
fc
f6
f6
ef
f9
f7
f9
f6
f4
f6
f9
fc
fc
f4
f9
fa
f9
fd
fb
f6
f9
f9
05
07
08
01
03
05
f8
fa
f9
f2
f2
f1
ef
f2
f7
ff
ff
fd
f8
04
06
f9
0b
0a
09
0b
fc
01
00
ff
ff
01
02
ff
ff
01
04
09
06
08
08
09
ff
02
ff
00
04
03
0a
0c
0d
fa
fb
fb
0c
12
10
fe
03
fd
f8
f7
f4
ff
01
04
17
16
16
0f
0c
0a
fd
00
04
f8
fb
fe
f8
fc
f9
fc
00
04
03
05
02
f8
f6
f4
fc
fb
ff
09
0c
08
08
0a
0a
f9
f9
f9
fe
02
fe
00
05
00
01
fe
fb
f6
f5
f3
f6
fb
f6
fe
ff
fd
fb
fe
fc
fa
fb
f9
04
01
02
fc
01
03
f4
f7
f8
08
04
08
02
ff
03
f3
f5
f7
fd
03
04
fb
01
04
f7
fc
fb
0a
07
06
06
04
03
f6
fb
fb
06
05
fd
f9
f7
f7
fe
fa
fb
f4
f0
f6
02
ff
f4
02
06
f6
02
fe
fc
02
01
fb
08
08
02
fa
fa
01
f9
f5
f9
02
00
ff
fc
fa
fa
fd
f9
02
fc
fe
07
07
09
01
03
08
fb
ff
04
fe
fa
02
fc
f3
fe
fa
f2
f7
f3
fb
fe
fa
f6
ff
fe
f6
ff
0a
06
08
01
08
07
04
07
00
03
02
06
02
fe
02
ff
fd
00
01
03
00
fb
03
05
06
01
0f
0c
fa
f6
fc
fe
fd
fb
07
07
01
fc
00
fe
02
02
fd
01
fe
fd
03
0d
07
fe
03
f9
fb
f9
fb
fa
f8
fa
fb
fc
f9
fc
ff
fa
f7
f2
f8
f6
f9
f9
f8
fa
f9
07
09
fd
03
0a
fd
fe
09
fe
04
04
03
fb
f9
fd
fd
f9
ff
03
06
06
01
08
00
05
0c
02
fb
f9
f9
fb
f9
f7
fa
fe
f9
fb
f6
fb
fc
ff
f8
fc
0d
03
fd
00
ff
0a
07
fb
19
0b
fb
f6
fc
f4
f8
ff
fb
fc
03
02
f9
f7
fa
fe
ff
fb
00
05
04
06
0c
04
fb
07
fd
fa
07
fe
f7
ff
fc
ff
fa
02
08
ff
05
0a
07
08
06
ff
fe
03
f8
00
0b
06
06
02
01
02
05
00
05
fe
fc
fc
ff
f5
f7
00
fa
fb
fb
01
00
06
07
fc
0c
0b
02
fe
00
02
fe
fc
fd
00
01
ff
fc
00
ff
ff
fd
ff
fa
f5
fa
09
0b
02
06
00
fc
02
fe
fd
fb
05
fd
06
02
fe
0b
07
06
08
08
02
03
05
03
03
00
02
fd
03
fc
f9
fe
fe
fb
00
01
01
00
f5
04
00
f9
fe
fb
f8
fa
00
00
03
09
02
06
0c
05
fa
f9
01
05
09
fd
08
11
f8
f8
f7
fd
fc
fb
f9
ff
fb
f3
00
01
00
ff
00
fb
fe
01
f9
fc
01
ff
05
fe
f8
06
fa
f9
00
05
02
fb
f7
ff
fb
f2
ff
fa
05
fd
f9
fb
00
ff
fd
00
00
fa
f7
03
05
fe
09
12
10
ff
01
04
05
fd
01
07
fd
fc
f6
00
f8
f7
f9
fb
f7
f8
02
ff
ff
fe
f6
f8
f7
fc
00
00
f3
fb
03
f8
fe
0c
f0
f6
08
ff
00
00
00
00
fe
fd
00
fd
ff
02
ff
fa
fa
fe
fb
f9
fa
fd
ff
05
05
00
fe
0b
ff
f8
f9
03
fc
fe
ff
04
03
00
08
fa
fb
f9
fd
fd
fa
00
06
ff
01
02
07
04
ff
06
08
f9
04
fb
05
fd
f4
f8
fc
fa
f6
fb
f7
fa
fa
fc
fb
fe
01
02
08
fd
f9
02
05
03
06
0b
0f
0d
00
f7
ff
03
00
00
05
06
01
02
10
07
fc
05
0b
f5
f8
0c
fc
ff
fc
fc
fe
f7
fd
02
fb
f5
fd
fc
f6
fa
f9
ff
fe
fb
06
07
01
03
02
03
02
00
03
01
fa
fc
fb
f9
fb
fd
03
01
00
06
01
02
02
fe
03
ff
fb
0e
f9
05
f8
fa
f0
f6
fb
f2
f2
f4
fd
fd
ff
00
fd
fe
fe
0c
02
0b
02
ff
fb
f8
fe
f3
f5
f8
f6
fa
f6
f7
ff
fa
f9
01
02
04
05
06
05
00
fe
fe
03
ff
fd
f8
f5
f3
ff
fe
fd
08
03
03
0d
06
03
0a
00
00
ff
fb
f7
fc
f8
fc
01
fc
02
00
fe
fc
0e
11
07
09
0f
11
ec
03
10
f5
f2
f6
fc
f5
ec
f0
e7
ed
f7
fd
f4
fd
03
f9
0f
07
0a
f7
f1
fb
f4
f0
f1
fe
f4
f6
02
01
fa
fe
02
01
07
01
02
0e
0e
07
03
06
01
03
04
02
f6
fa
f6
fb
f9
fb
03
02
0a
02
01
fc
fa
fb
f8
ff
01
03
f8
f7
fb
00
fe
ff
fd
00
f9
f7
fd
f9
fa
fa
fc
ea
e8
f1
f6
f3
f9
fa
f4
00
f2
fe
05
03
01
fa
fe
f9
f6
08
01
fa
0b
07
08
fc
fd
fa
fa
0a
0a
fc
04
06
f5
f7
f9
0b
0d
0b
0f
10
12
fd
fe
03
fb
fe
03
05
06
07
ff
fe
fb
f8
03
f8
fa
f6
fb
fc
fd
fe
14
12
0c
08
0a
06
fc
fc
01
f8
f5
00
fc
fc
06
0a
0e
0f
0d
fe
02
04
09
03
f9
04
fb
fe
fa
f1
fe
f7
fc
f4
f4
f8
0c
08
0b
fa
fc
fb
ff
01
ff
05
05
0a
03
ff
03
05
00
03
04
01
08
03
fb
04
03
fb
01
0a
08
06
06
fe
fb
05
ff
06
fd
fb
fc
fe
ff
03
00
01
02
fc
fb
f9
f9
fb
fe
fd
fc
03
f9
fd
07
f8
ec
ee
f9
ed
ee
fc
ff
fd
f9
fb
fb
fb
f6
f8
11
10
08
fd
00
f7
00
fa
f8
05
06
04
05
07
09
fa
fe
01
01
fe
01
f7
fb
f5
0b
0d
08
08
02
f8
02
06
02
fd
02
02
f5
ed
f8
ec
ec
f1
f7
f7
fe
0f
14
12
09
0a
0f
f1
ef
ff
e7
f6
fc
f9
02
01
ff
02
fe
0d
0a
03
13
09
01
fc
f7
fb
0b
00
06
f7
ea
f2
f4
ee
f3
f5
e8
ea
ef
f0
f0
f9
f8
fa
fd
fd
fa
f2
ea
f9
fa
ee
f5
02
01
00
fd
fe
00
ff
ff
02
f6
f6
ec
ee
f4
f0
ff
ff
00
00
f9
ff
fd
f7
fa
f6
f6
f6
0a
0b
0e
f7
f2
03
ec
ea
f7
fa
00
f9
fa
fd
f9
03
05
04
14
15
19
03
03
08
f4
f0
f4
0d
0d
05
04
04
fe
06
07
04
f0
fe
f5
fa
02
fb
0b
0d
0f
00
f8
fd
0d
0e
10
f9
fb
01
0e
0b
0d
fc
07
01
f4
f8
f3
06
10
17
0a
02
04
fa
f1
f6
07
01
ff
fd
ff
fa
02
04
04
ff
0a
05
05
0f
0c
07
0b
0c
20
22
29
f9
f6
08
f1
e8
f0
f4
06
14
ef
f7
03
f9
fa
01
01
fb
fe
01
f9
fe
01
f7
fe
0a
fb
fd
fa
f0
f1
fa
f6
fc
00
f9
00
00
ff
09
08
04
0b
fe
03
00
f9
01
fe
f8
fa
f8
06
02
02
02
fd
01
06
fe
fe
05
03
ff
04
ff
fe
12
08
fe
fd
fd
00
02
02
06
0b
07
07
05
fd
f8
fe
ff
f8
00
05
01
fd
fd
f8
fa
fa
fd
fb
fc
01
15
11
04
06
03
fb
f4
f2
01
05
07
19
07
03
0b
0b
f8
ff
05
07
03
00
fe
03
03
fb
04
f8
fe
02
00
05
08
0a
07
06
0c
06
00
02
ff
fb
f7
fa
06
fe
fb
fb
fa
f8
fb
fc
fb
fe
00
fd
00
00
fe
fb
fc
f9
f9
fd
f5
fc
fe
f9
fa
05
fe
fa
04
04
00
05
03
fe
05
02
fe
fb
f9
01
01
02
03
0d
0a
05
07
08
fc
f9
fb
fb
f6
f6
fe
f6
0f
18
fd
ff
06
fd
f6
fc
f8
fd
04
f8
00
0a
03
03
0c
00
fd
07
02
fe
0c
0a
00
04
fe
f4
f4
fc
f7
f6
fc
f9
f9
01
f7
fc
0a
02
04
12
0a
0a
f7
f5
f5
f5
ef
fb
fc
f6
fe
07
0e
01
08
0b
08
05
09
0d
fd
fc
fa
00
04
f9
02
04
fc
0e
10
09
ff
fa
05
fc
f6
07
f2
e1
f0
f6
ee
fd
fd
fd
0a
fa
fb
f7
f4
f9
fa
f8
f8
f8
07
08
05
00
06
05
ff
03
05
01
05
ff
fa
fb
fb
fd
00
02
00
00
fb
fc
fe
fb
00
00
f8
fe
fe
fd
fa
fc
f9
ff
fe
fb
02
fc
fc
00
01
02
00
04
03
02
06
11
01
fe
06
01
08
0e
00
fa
fe
fc
fb
04
02
07
08
f3
f1
ff
f1
f0
f7
09
03
fa
08
07
06
01
00
fb
f3
f6
f0
01
01
ff
00
02
ff
02
06
02
fd
fe
01
fc
fe
ff
04
fe
00
0b
15
0e
f4
fe
fc
f1
f8
fb
f7
00
01
fa
fd
08
05
fe
fe
fc
fd
12
fe
ef
fe
fd
eb
f1
f9
fb
fe
f6
f4
f2
fc
fb
f3
fa
fc
00
fe
fb
f9
03
fa
f5
08
04
00
fa
fa
f9
f4
f0
ef
08
f4
f2
09
f3
f5
11
03
01
ff
01
00
fe
00
fe
ff
fe
fe
fc
fe
fc
f5
fb
fc
f4
fc
f8
f9
f7
f8
fd
fd
fc
04
02
fa
f0
fd
f8
f1
f7
00
fa
fd
04
02
fe
fc
fd
fa
f8
fa
fa
fc
f7
fd
fc
f7
f5
01
fe
f9
00
ff
fd
fa
ff
fe
fa
fa
fa
f5
06
06
07
04
09
06
fd
02
07
03
f3
f7
0c
fa
ff
16
0e
08
02
00
04
07
02
02
07
00
fa
06
06
02
00
02
05
fd
04
0c
04
fe
fd
ff
fd
fa
06
03
fb
fe
02
06
03
05
08
06
04
fe
f2
f3
ff
02
fc
08
13
0b
03
06
03
0d
0e
08
05
07
09
fe
ff
0a
fa
fa
04
f7
f7
f9
fc
fd
fa
fb
07
05
fb
00
00
00
02
00
ff
02
00
03
ff
fe
03
ff
fc
ff
fd
02
fb
03
04
fd
ff
01
02
fc
fe
ff
fe
03
01
f7
f7
f9
fc
f8
fb
fc
fa
fc
f4
f7
f7
ff
00
fd
01
fd
ff
f7
fb
f8
f5
fa
f4
f6
01
f5
fe
ff
00
fc
fb
fd
fa
fb
fb
00
07
02
04
09
06
f9
fc
fb
00
00
fd
00
ff
fc
fc
00
01
ff
ff
fe
06
06
00
fd
ff
01
03
05
02
fe
fd
01
03
04
05
02
07
05
09
0d
0b
01
05
01
f7
f5
f5
ff
00
f9
05
06
05
ff
fe
00
fb
fa
00
fe
00
ff
f4
f3
f9
f8
f9
f9
fe
fe
ff
03
03
04
00
01
00
04
06
07
f7
f5
fb
ff
ff
00
00
fe
01
04
08
06
03
08
fd
01
0c
fd
fd
fb
f6
f7
f5
ff
01
fe
03
fc
02
00
fe
03
02
04
0b
06
07
0d
07
02
07
03
04
09
07
fd
fc
f9
04
05
ff
01
07
06
fb
fc
fd
fe
fe
00
fe
02
02
f6
f8
f4
f3
f4
f2
fb
02
fb
fc
fa
fc
00
fb
ff
03
01
06
fd
fa
fc
fe
fd
fc
02
04
ff
f2
f1
f6
f5
fa
f9
fa
01
ff
fc
fd
00
f6
f7
fb
f7
fd
fc
fd
00
ff
04
05
01
ff
01
00
fc
fb
fe
fe
fa
00
ff
fb
02
fd
00
fe
fd
fe
ff
f5
fa
fd
ff
01
fb
ff
00
fd
ff
01
fd
01
ff
ff
fc
fd
fc
fc
fb
fb
fa
fd
fc
00
01
fb
04
08
06
fc
ff
fe
02
09
0d
03
0b
07
fe
fc
f8
fd
ff
f8
fa
f9
f5
0a
10
06
03
06
fd
08
0e
03
fb
fb
fb
06
07
03
15
1c
14
f9
fd
f4
f6
fe
f1
06
0d
08
fc
fc
f9
fa
fd
f5
fa
fd
f6
04
08
00
ff
01
fa
fb
fb
f8
fc
fd
fb
fb
02
fd
02
0b
03
fc
fd
fd
fe
fd
ff
fb
fc
f9
f7
f4
fa
fb
fa
fa
0a
0a
02
ff
ff
00
fc
fc
ff
ff
fc
ff
0c
0a
09
fd
00
f8
fc
03
fe
fc
ff
06
08
06
05
08
09
00
fe
00
00
ff
ff
fe
fe
00
ff
03
00
fe
ff
01
fb
fb
fd
f7
fb
fe
fe
fe
ff
fc
06
06
fe
fa
fc
fc
02
02
03
03
0b
0b
fb
fb
f9
f8
f4
f8
f4
f4
fd
ff
fb
f8
04
fd
fd
ff
ff
ff
fb
fa
01
f4
f2
f8
fe
fc
00
fb
fe
fb
f6
f7
f9
fd
fb
00
01
01
03
ff
fc
00
fc
f6
fc
04
05
06
02
0a
06
06
0e
04
ff
02
03
02
01
01
07
03
fe
fa
fa
fd
ff
fe
ff
f3
f1
f7
fa
f7
f9
f9
f7
fb
fd
fc
01
09
03
05
fb
f5
fe
f7
f5
fe
0b
05
09
07
07
08
09
0b
09
06
09
ff
02
00
f9
04
00
f9
05
03
06
e8
e7
ef
ec
eb
f5
fc
fa
00
fd
f9
01
04
04
09
fc
fb
fd
f4
f9
00
fd
01
07
fe
f9
f8
01
fd
f8
00
00
fd
00
02
04
00
01
02
00
00
00
f7
ff
01
fa
fd
00
f1
ee
f9
04
04
fe
00
02
fc
02
00
06
f7
f9
f6
fa
fb
fb
fb
fd
01
03
01
0d
04
f7
05
06
fe
02
05
fe
f9
06
ff
f7
0b
01
05
00
01
09
f4
f0
fb
00
f8
02
f9
fd
0b
f5
f9
03
fe
00
08
16
0f
12
fa
ee
fc
fe
ee
f9
08
0a
0a
fb
fb
00
01
01
02
0d
05
09
fe
fd
fd
fd
fe
fb
12
08
11
0a
0c
0d
06
0a
0d
fe
01
ff
fe
02
00
ff
03
03
05
0b
0c
fb
02
02
fa
fb
fd
f6
ef
f6
f6
ee
f1
f6
f4
f1
ed
f2
02
fb
ee
f9
0e
03
02
05
00
0e
01
02
0e
06
ff
0c
f2
ee
f6
fb
ef
f4
08
06
ff
01
fb
fa
03
f9
fa
06
fe
fb
02
f9
02
f7
f2
fc
07
07
0c
f5
f3
f2
fb
f0
f9
fe
f9
fb
04
0d
10
0f
14
14
10
09
0d
07
05
05
03
01
05
07
03
08
07
09
09
f7
f7
01
01
fb
05
02
03
18
f3
ef
06
f6
ee
02
00
fe
fe
f9
f6
f6
fa
f4
f8
06
06
01
05
02
01
fe
02
04
05
f5
f1
0c
fe
f6
09
06
fc
fe
fd
fb
fd
fa
fd
fa
ff
03
fc
fc
fc
ff
00
00
fe
fe
00
02
05
00
08
06
00
01
fc
f9
f3
f2
f5
fd
fa
00
f8
01
04
0c
14
12
fd
04
0b
f4
f0
01
07
02
08
02
ff
03
0a
0c
09
05
fa
03
00
f6
fc
fd
f3
fb
07
05
01
f2
f4
f6
ff
05
0a
fb
02
00
fc
fc
02
fe
fd
07
fb
05
01
ee
ee
f1
ee
ee
f4
fd
fd
02
fd
00
ff
08
0c
02
fb
f1
08
04
f2
fa
09
f5
f9
fd
fd
00
fa
fa
fd
fc
00
05
01
fa
00
02
ff
fc
0a
0c
07
fb
01
fa
f3
f5
f0
ef
ef
f1
02
fa
04
05
01
05
fd
fc
fe
fc
ff
01
fd
fe
02
ff
fe
01
f3
f7
f8
f3
f8
f8
ee
f2
f4
0d
08
0f
07
09
07
03
02
00
0f
ff
fb
0d
03
fd
0f
0e
00
f4
f6
f4
f3
f1
f2
fc
f6
f7
fb
f3
f1
09
f9
f5
0e
08
fd
0c
0b
09
0b
04
05
0e
01
03
03
05
05
07
fc
02
05
fb
ff
01
f8
0a
0d
04
09
0c
06
09
0c
03
0a
0e
07
07
0e
0d
09
f1
ed
f1
ee
ea
f4
f8
f7
ff
fd
fd
ff
fa
ff
02
fc
01
03
07
03
08
08
02
06
0f
03
04
f6
f0
01
f3
f0
f6
f8
f4
f8
04
f3
f9
10
fa
f7
13
00
f9
00
fe
fb
f8
f5
f8
f9
f8
f8
f0
f7
f3
0a
07
0f
05
fd
ff
03
01
05
02
fe
01
04
fa
fa
fc
fd
fd
fb
f9
f4
f7
f7
ee
02
07
01
fe
fe
fb
02
02
fe
06
06
02
00
ff
00
ff
fd
fd
03
07
06
0b
0e
0e
09
00
00
08
04
02
03
fd
fe
fd
00
03
f8
f3
fb
fc
f7
fd
ff
02
04
fa
f9
f4
01
ff
ff
0e
07
11
08
09
f6
09
05
f8
04
0e
ff
05
03
fe
0d
11
06
07
08
fd
03
09
05
05
09
07
03
0c
fc
ef
ef
f9
fe
fc
00
0d
0d
14
00
fa
00
01
00
05
fc
f7
fd
00
07
f9
fa
01
f3
07
0e
fe
01
0a
09
fa
f8
f5
fd
fe
f6
fb
fd
fb
ff
00
02
02
08
05
ff
fd
f9
00
02
ff
09
03
fc
01
fe
02
fa
f4
fa
03
04
05
fc
0a
02
03
0d
ff
fb
06
fc
09
0d
fa
f6
f8
ff
fc
05
fc
0d
19
0c
0f
0b
01
fa
f6
f1
f6
00
fb
fa
08
05
fe
0a
02
04
ff
ff
01
f9
fe
07
03
f8
fc
f9
03
ff
01
07
fe
01
04
fb
fa
fa
fb
fc
fa
03
0f
06
f2
ed
ef
f9
fc
fd
04
0d
0d
f6
f3
fe
00
fa
fe
fa
fa
fc
10
16
06
05
0c
15
07
0b
f9
02
00
03
06
07
08
09
07
06
fa
f9
f8
fe
ff
fb
01
01
fd
09
fe
07
03
ff
04
00
fd
fd
09
08
10
04
fc
03
f9
f4
f2
f4
f6
f5
fa
f9
f9
02
fe
ff
fa
fd
f8
00
02
04
03
ff
01
f9
ec
f4
09
04
01
fa
fd
f9
02
04
fa
09
09
09
10
08
fe
00
fd
fa
03
f4
fa
0e
01
01
f7
09
f9
f3
0b
fb
fa
0b
fd
f1
ed
f8
12
fd
13
09
f2
04
f8
fc
01
f5
f3
fc
02
fd
fd
f1
f3
f6
ef
ec
f0
fe
05
0d
19
17
0f
f9
f4
f7
f3
f1
ed
fe
fd
eb
f7
ef
e5
ff
fd
f9
0c
10
08
00
01
f7
fc
03
fa
0a
0d
06
01
fe
fb
fd
fa
f6
eb
f1
f0
ed
ef
f7
02
03
09
f5
fe
fd
f8
06
09
03
08
fe
fd
fe
fd
ff
00
00
ff
01
02
fc
fc
fe
04
fc
02
05
00
03
07
08
fe
ff
01
fe
06
06
ff
10
0b
0d
ff
fc
02
f7
ff
fa
f2
f7
f3
0a
05
0b
03
fc
ff
08
03
00
0c
0c
02
f9
04
fd
f3
fb
f0
ef
fb
f6
00
07
06
f3
f0
e8
07
09
07
09
05
08
0b
13
02
fa
01
f3
00
fd
f2
05
06
07
fe
05
00
f9
fd
f6
fd
fb
01
f5
ee
f4
f5
f3
f3
00
fb
f8
fa
f7
f6
f7
ee
f2
fc
02
fb
00
07
fc
fd
fe
fc
02
0e
f6
f6
01
f5
00
0c
f8
02
0a
f3
fe
04
f4
fd
02
fb
f6
f5
f8
f1
f5
fe
ff
06
04
00
02
0c
f3
f8
04
f6
03
fd
05
07
01
07
05
02
0b
08
05
05
05
09
06
ff
04
06
ff
02
00
fc
f9
00
fc
fb
ff
01
fe
fa
fc
fe
ff
ff
04
00
01
03
01
02
01
02
02
06
fa
fa
fe
02
01
02
fe
ff
05
02
0d
0d
01
f9
fd
03
fc
fe
06
03
04
fc
f2
fa
ff
f0
fd
04
fc
03
0c
02
f5
02
fd
f6
fb
fe
03
f8
f0
f9
f5
ea
f7
f4
f9
fe
f9
fd
00
ff
02
02
03
fd
fc
01
04
0c
02
fa
05
05
fe
03
00
04
07
fd
ff
02
fe
07
03
00
fd
04
01
fd
04
fc
f8
02
05
0b
09
0a
06
05
0d
06
07
03
02
02
03
00
fc
ff
02
02
f9
fd
01
fb
fc
fe
fc
fc
fa
fb
ef
f4
f5
eb
f0
fa
f1
f3
0c
fe
f1
0e
07
f0
0d
0a
f2
ef
fd
06
f5
05
01
09
07
fa
02
f7
f0
fb
f2
f7
f4
f4
fd
f4
f5
fa
f5
f6
ff
00
09
0b
ff
08
ff
06
06
02
09
04
fe
fd
f8
f5
ff
fc
f9
f7
f8
f5
f6
f3
f9
f9
f3
fa
00
fa
01
00
02
05
04
04
03
04
02
03
0b
05
09
0e
00
fa
15
0c
03
ec
03
1b
f2
0a
12
08
09
02
fb
f9
fc
fc
f9
fe
f2
f5
fd
fd
fd
fd
fa
fc
fb
f8
fa
fa
fd
fa
02
fe
fc
01
fb
f8
fc
05
0c
05
04
0b
05
00
04
02
f8
f3
f8
fc
f9
fb
01
03
01
02
ff
fb
00
fb
fb
fd
fc
00
01
f7
f8
05
04
fd
06
09
00
fd
fd
04
f8
f8
fc
fc
f8
f9
fb
fc
fa
fb
ff
ff
04
0b
ff
f1
f6
f9
ed
f3
f9
fd
05
04
06
0f
13
00
05
0c
f8
ff
00
fb
f6
02
03
f9
fd
0c
ff
fa
ff
f8
f5
f9
ef
f2
f5
ee
f4
0f
06
04
0c
05
05
06
fb
08
10
07
fb
0e
03
f7
0d
05
00
01
04
ff
ff
03
03
02
04
fd
06
01
fc
05
06
02
fe
fd
02
01
01
06
f6
f3
f8
f6
f9
fc
ed
f7
09
f7
03
0e
08
15
02
01
00
01
01
01
01
fe
ff
ff
00
fb
f9
fc
f5
f7
fa
f4
f6
01
08
09
01
08
0a
ff
ff
03
fa
01
02
00
06
ff
03
00
00
fa
f9
fb
fa
f5
fb
f8
02
ff
02
fd
fe
02
06
0b
00
0b
11
00
02
04
fd
fd
00
fe
00
02
fd
f5
fa
fb
f7
fb
f9
00
00
fd
fe
ff
f8
f8
fd
ff
fe
04
04
00
00
05
02
ff
0d
07
06
05
03
fd
01
fd
00
ff
fd
02
04
00
0c
ff
fe
07
09
0e
11
04
04
01
08
06
01
09
0a
02
f0
f3
f3
f7
fe
ff
ff
ff
04
02
00
fc
00
00
f9
03
02
ff
fb
f6
f9
f9
f7
fa
fc
fc
fa
fc
f6
f8
f3
f3
f9
00
fe
fc
03
02
fd
05
02
fe
04
ff
fb
f8
02
0c
f6
05
0a
fe
05
03
05
fc
f7
06
fa
f8
03
f8
fa
0b
05
fe
0e
07
fc
07
03
fe
f5
f8
0d
f7
fb
10
fc
fc
08
fd
fb
fa
fb
00
fc
f8
ff
02
08
03
05
04
00
ff
02
ff
03
05
06
03
06
02
02
02
f8
00
f1
f8
f9
fc
08
01
07
12
01
f7
f9
04
f5
fb
09
fe
f9
02
00
03
01
00
05
fe
08
03
f8
10
03
f7
0d
fb
ef
0a
f5
f2
ff
f7
03
f9
f8
06
fd
fa
08
07
09
05
0c
06
06
09
08
0d
f9
fd
07
f6
ff
0e
f7
00
0b
01
00
07
02
01
04
04
00
fb
f7
fa
09
fa
fc
09
00
fb
02
05
fc
0f
05
f6
02
04
f8
fc
f6
ff
f4
fe
00
fa
fd
03
01
05
0b
fe
02
06
00
ff
0a
05
00
fd
05
02
f3
f9
03
f9
01
fb
fd
01
fe
02
07
02
fe
00
05
fd
ff
08
01
fc
02
ff
fa
f8
ed
08
f9
f3
04
fe
fb
01
12
03
eb
16
02
e6
15
03
ec
0c
fd
f1
0f
fd
f3
0f
ff
fc
04
ff
fe
04
fe
00
07
fa
ff
08
f9
f9
06
f8
f8
09
fd
f5
02
fc
02
00
f2
f5
02
f5
f2
f9
fe
08
f6
fc
03
f8
fc
02
fc
fc
fe
f7
01
fe
fc
04
fa
fc
fb
07
fc
f7
fb
fd
01
05
06
03
fb
05
fd
f8
00
fb
f7
fc
f9
07
fa
f7
05
f9
fb
03
f5
fd
f7
f6
01
f8
fb
00
f0
04
ff
05
08
ff
06
06
00
fd
ed
fd
13
ee
fa
15
f7
fd
13
fc
fe
0b
fe
fe
08
00
03
0d
fd
f3
07
fe
f2
07
05
f0
04
08
02
fe
0b
03
fb
0e
ff
f7
04
02
fc
03
fe
f8
02
fc
fe
05
04
07
08
fe
f8
0c
06
f9
fb
fa
f0
fc
fe
fc
fe
ff
00
f7
03
0a
fc
0a
09
fc
0b
0b
03
fe
f9
06
fd
f4
07
fe
fd
fa
fc
07
00
fa
02
07
03
ff
08
0f
0e
0b
0e
01
0d
0e
f8
04
02
01
01
02
02
ff
ff
ff
fd
fd
0d
f8
f4
02
fe
fc
02
fa
fe
08
fc
01
0a
04
0b
0c
ff
fc
f7
00
fa
f2
06
02
ef
00
00
01
fc
f9
01
fc
fb
09
ff
fd
f1
04
03
ef
05
01
ed
fc
fc
0a
ff
ff
0a
ff
02
09
ff
fb
05
01
fb
07
01
01
12
08
06
03
04
02
06
02
ff
04
f1
f5
02
f2
f8
08
fb
fb
05
0f
04
fa
0f
00
ef
07
fc
ec
fa
fe
0a
f8
fe
09
fc
fe
08
f1
f8
07
f1
fc
10
f2
02
1a
01
00
fa
05
fe
f9
04
00
fa
f5
ed
f3
fb
f2
02
fc
00
12
fe
02
0b
fb
f9
03
fa
fa
00
fc
f9
f8
fc
ef
f4
fe
f0
fa
01
00
01
04
06
02
06
04
01
fd
03
fe
fc
fb
01
00
fc
07
fc
ff
fb
fc
00
fb
f8
06
00
0d
15
12
0a
11
0e
01
04
07
0c
06
04
0b
06
03
09
0d
06
fa
04
03
f9
fd
02
f9
fe
04
ff
04
03
00
00
02
02
00
00
ed
f3
fb
fd
f7
fa
0b
0d
07
f9
0d
17
01
05
0e
fa
0c
0b
fd
ff
fd
04
fd
fe
ff
f6
fb
f9
fe
fe
fd
01
01
ff
07
05
fe
0c
08
fc
fe
fc
04
02
00
01
f9
f9
03
f8
ff
03
f9
00
01
09
09
fe
03
02
08
0a
03
0a
0d
0a
fe
fb
fe
f9
f7
f9
01
05
02
04
04
03
03
01
01
05
fe
04
0b
0a
09
09
06
07
07
01
0d
03
f7
07
05
f9
07
ee
00
01
eb
fa
02
f1
f9
fe
fd
fa
fb
04
03
02
09
0a
07
03
fc
fe
01
00
f5
01
05
f6
f6
f0
f4
f8
ef
f4
f9
f2
f6
0b
10
0f
fe
07
04
fe
05
ff
00
00
f4
fe
fb
f2
ff
f4
ee
fd
fd
ff
fb
fb
f9
ff
00
fd
06
14
0c
04
0d
03
01
07
00
01
00
fd
08
fd
fd
0a
fa
fd
0e
10
00
0c
07
ff
f8
fb
f1
ff
fb
fd
fc
f6
f5
00
f8
f6
fd
f4
f8
fa
f6
fb
fd
fe
fe
f8
fb
fc
f9
fd
00
fd
01
ff
02
f9
fb
00
02
ff
00
03
fd
f8
f3
f8
f9
f9
fa
fc
ff
ff
02
fe
02
02
ff
05
02
07
09
fc
04
05
fe
02
03
fd
ff
f3
10
0f
0b
14
0d
0c
05
03
05
02
f6
fc
fa
eb
fb
f9
ed
fd
fd
fd
fc
05
01
03
fd
00
05
f0
e6
f1
f2
e4
f3
f7
e9
f6
fb
fd
fb
00
02
fb
ff
01
fc
05
09
03
06
0d
02
f5
fa
f9
ff
07
06
fd
03
fb
03
08
fe
f7
07
06
fb
04
0c
f8
fe
01
07
0b
08
fc
00
00
f8
f8
00
04
0a
0a
00
0c
06
06
10
09
f7
f9
fe
fe
f9
fc
fd
fb
fc
f4
04
04
ff
08
02
f3
fb
ff
02
01
fe
ff
01
01
00
00
02
01
fc
fa
ff
fa
fb
01
fb
fd
ff
01
ff
01
fe
fb
03
00
fd
ff
fd
f6
05
0a
fc
10
19
0a
00
ff
00
fb
f7
f9
f5
f3
f6
f6
03
00
f0
05
01
f7
02
fe
05
0c
02
fa
fe
f8
fe
02
ff
07
ff
ff
05
f9
ff
01
01
02
f0
ef
f6
f9
f2
fc
f9
fb
00
01
ff
fd
03
fd
fb
fd
fc
fc
fd
0d
fe
00
10
fe
07
14
05
01
fe
00
01
00
03
fd
fe
05
00
00
01
fd
fc
fe
fc
fc
ff
fb
fc
fd
fc
fd
f9
01
06
00
f9
fe
fe
fe
00
fe
fe
01
fd
00
ff
0a
00
ff
02
06
03
02
ff
0b
0c
f7
f4
fd
01
fe
05
03
04
07
ff
ff
ff
fc
f9
f9
07
04
ff
06
01
fe
06
01
02
08
02
fc
07
00
fe
00
fd
fe
fd
01
01
04
ff
03
01
fe
00
f8
f7
fc
fc
fe
fa
fc
fd
fc
04
01
02
fb
f4
fd
fc
f6
fe
00
fe
fe
09
03
05
11
0a
0d
00
f2
03
fe
f2
fc
08
02
07
2b
13
0b
02
09
0b
e2
f1
06
fe
fe
f5
07
05
01
07
04
03
05
0a
0c
08
07
0c
04
ff
04
03
04
0f
02
f3
ff
0a
fc
06
f9
fd
fa
f7
f8
f8
ff
02
04
fc
f4
f8
fd
f5
fa
fa
f2
f9
0b
09
0c
fd
fb
02
f5
f6
fd
fa
fa
f9
ff
fd
fe
ff
fd
00
02
0f
0d
07
05
02
03
00
ff
e7
dc
e5
f4
e9
ef
02
f1
f7
1a
00
fc
03
f9
fe
f9
f8
0e
06
07
13
05
06
0c
0c
06
05
04
f5
f2
fd
fa
f5
fc
f9
00
f9
fe
fd
04
0a
0f
0c
0c
0e
05
04
06
03
fc
fe
fc
fb
f6
fd
f5
f9
f8
f4
f3
07
f8
fb
02
f9
01
fc
f8
00
f9
f5
02
06
06
0b
fc
f8
fb
ff
fc
fc
08
02
fd
03
f0
f3
00
f9
fc
f9
01
19
fb
f5
f7
03
f8
e9
02
05
03
03
03
03
06
06
0c
04
00
02
09
ff
06
04
03
03
01
fd
03
02
fe
02
ff
f8
fb
02
f5
fc
f3
e9
ef
fe
f7
fb
09
09
05
05
05
09
09
09
0c
07
05
04
03
03
03
07
01
00
11
14
08
13
11
12
03
00
0e
06
09
13
08
04
09
01
fe
00
0a
0e
0c
03
09
09
fc
02
09
fc
f9
04
fd
f9
04
0e
05
0e
f6
f9
ee
f0
f1
ea
f5
f6
fd
02
fd
fd
09
00
03
0e
03
05
fd
fd
05
f9
f5
fd
01
04
09
f5
e9
fc
f7
f2
f7
04
fb
02
1e
08
06
fb
f9
fc
e5
e8
f5
0b
f6
f9
01
f7
fa
05
fc
fd
01
f9
fb
f9
f9
fe
f8
f9
01
f1
f3
f8
f6
f5
f9
00
fe
05
09
0e
15
0f
08
0c
0d
fc
06
fc
ff
ff
fc
fe
fc
fb
fc
ff
f9
ea
ed
fd
ef
f2
07
f6
fc
f6
fc
03
f5
f9
00
f8
f6
fd
05
fb
04
05
ff
fc
02
fb
f8
f9
f6
f2
fc
fa
fc
ff
f8
00
0f
05
02
0b
08
07
02
03
09
fd
f7
fb
fb
f9
fc
10
0e
08
02
fa
fe
ff
fc
01
04
05
0a
02
ff
04
00
ff
03
fd
fd
00
01
02
04
07
05
05
09
05
05
00
f4
01
01
f7
05
05
fb
01
0f
13
0e
f6
f5
fc
f5
f7
fd
08
fb
01
ff
f9
fa
01
03
05
0b
05
01
0f
13
14
f2
f9
00
13
0f
0c
fe
02
07
ee
f3
00
f6
f7
03
f7
fc
0a
04
05
0f
05
01
05
00
f7
f4
02
f4
ec
04
fe
00
03
fa
01
05
f8
01
ff
f8
fe
f7
f5
fc
f7
fd
fe
fe
fd
02
00
f6
f7
01
fa
f4
fc
f9
01
00
fc
fa
02
00
fd
03
02
05
05
05
02
fe
00
01
f9
f2
fd
02
f5
f4
0a
01
f2
06
00
fe
01
fe
fd
fc
fc
ff
fd
09
0e
f5
02
05
01
ff
fc
f8
e5
e4
00
e5
e1
0d
fb
ec
04
04
fc
01
04
fb
0a
06
01
06
05
f8
06
fd
fc
fe
fd
04
0a
0a
0b
ff
02
ff
07
04
fc
02
01
03
02
00
ff
01
fc
f5
0a
08
04
00
03
01
00
ff
ff
01
f3
f8
02
f4
f2
0f
06
fa
02
fb
fe
f9
fa
02
fa
fc
04
fe
ff
06
07
03
03
07
02
05
fb
fd
0d
f4
f4
fe
fc
f6
fb
f1
e8
f5
f0
e4
f0
09
f1
f7
17
12
03
1f
08
07
0c
f6
07
03
01
02
03
f7
ff
07
fb
ff
f4
fa
fc
f7
f7
f9
fb
f3
f7
0a
fd
f9
0a
f7
f6
0e
fd
fd
fc
f6
fe
fa
f2
01
fa
f1
ff
02
00
03
06
03
05
0c
0b
0d
0c
01
fb
08
03
fe
fd
04
04
01
fe
0b
f9
f9
00
ff
fd
fb
16
19
fd
1e
15
0b
0f
f8
06
00
02
02
f4
fc
ff
f6
fd
fe
fe
01
00
00
06
06
00
07
04
04
0a
08
00
02
05
01
ff
03
fc
02
05
02
fd
01
00
fb
fe
f8
fb
fe
fb
fb
f7
fc
fc
fa
03
00
02
01
f8
fb
00
f3
f7
f3
f5
fd
fd
fa
fc
0f
00
01
0f
0a
fa
10
0d
ff
0e
0a
07
f1
f6
04
f7
f3
f7
06
ff
fc
02
ff
fb
01
fc
f7
f9
f5
fb
fb
f4
01
f8
fd
03
fc
06
0a
07
fa
01
07
fc
06
00
fe
06
09
00
f9
f9
fd
f5
f2
05
02
07
f6
ff
06
ed
fe
04
ef
07
fb
f4
f6
fc
ec
f0
0b
f7
f2
00
f7
fb
08
f6
fd
09
f9
fe
fd
f2
f1
fc
ef
ed
fd
f6
f7
05
fb
fc
f5
f2
f2
f5
f9
fb
0f
0f
07
10
0b
07
0f
03
fe
00
01
01
00
ff
ff
fd
ff
00
fa
fb
ff
f2
f3
f4
f8
f4
f4
08
02
03
05
fd
00
01
fd
01
06
08
fd
0d
fc
01
0d
fd
0a
03
ff
fb
ff
00
fd
02
00
fb
01
07
02
02
01
fd
02
fe
fb
13
0a
fe
02
02
00
fc
ff
00
07
0d
01
05
0e
02
08
00
fa
f5
fd
04
06
fe
fc
10
03
fd
fe
f5
fe
fd
fb
ff
fb
02
03
00
fe
07
04
f8
ff
0e
fe
00
01
00
00
02
02
fe
02
04
fd
01
00
00
01
fe
01
02
fd
03
fb
01
fb
05
ff
fb
08
02
01
ff
fe
fd
00
fd
fe
02
03
ff
03
fe
f9
fa
fd
00
fb
fc
02
0b
0a
0b
ff
ff
02
fe
fe
06
f8
fd
ff
f9
fe
02
fb
f9
fa
0a
08
08
fd
ff
fd
00
01
ff
f9
fb
fb
f8
fc
fb
f9
fe
fc
0b
0e
09
0a
0b
0c
06
05
08
06
02
03
ff
fe
fe
00
f8
02
02
00
06
03
04
06
fc
ff
03
fd
f8
fa
fc
f8
fa
fe
fb
fc
fc
f8
fd
07
04
05
07
0a
06
fb
fc
0d
fd
fb
02
f6
f8
ff
04
01
04
fe
00
02
06
06
06
03
fb
fa
00
ff
fe
03
05
04
09
02
09
05
fd
03
0d
08
09
f7
fa
00
fb
fc
04
05
07
0c
0b
0b
09
01
00
03
08
0c
0e
06
07
03
07
07
03
fc
fe
fe
fe
fe
ff
fa
f9
fe
ff
fc
fe
0c
12
08
fa
02
03
fa
fb
01
fb
f9
f7
fa
f4
f7
ff
fd
fe
fd
fa
0b
05
03
04
07
08
04
0c
fd
f4
08
00
f8
03
00
fb
f6
f6
fc
03
06
06
04
06
06
07
0a
0d
ff
08
08
ff
08
0b
06
06
03
04
04
07
fe
fe
01
00
fb
ff
f6
f8
f4
f5
f7
f2
03
01
00
fe
ff
fb
07
09
07
0f
0f
0b
f5
ef
f8
f7
ec
f6
08
01
ff
0c
03
02
17
0f
08
06
fb
f1
fa
f7
f5
fb
fb
f4
02
ff
04
f6
f4
f9
fd
f6
00
f5
f4
f9
fb
fa
fe
fb
01
ff
00
f8
fd
00
ff
00
ff
06
02
fe
f3
f6
01
ff
03
ff
03
05
01
03
00
00
fe
fe
fe
fc
fc
fc
fc
fa
fd
fe
ff
fa
fb
fe
02
02
06
fe
fc
01
ff
ff
fd
0a
0a
08
f5
f7
fd
f9
f2
fb
00
01
fa
ff
fa
fb
fd
fd
06
0f
09
07
08
05
02
02
00
02
f8
ff
03
f4
f8
fe
fc
fd
02
09
ff
f7
07
fd
fa
02
fb
f9
fa
f9
01
fc
fc
02
02
02
05
fe
f4
00
09
00
ff
0b
02
01
f9
fb
ff
f1
f0
f5
ef
f0
f4
09
04
06
03
04
06
fc
04
03
fa
f8
fd
fd
fb
00
01
04
06
fe
ff
fb
f3
f1
f6
fc
f7
fd
05
fa
ff
03
fc
ff
fe
fa
fd
04
02
03
01
03
03
ff
fe
00
01
fc
02
f8
f3
fa
06
ff
07
03
00
fe
01
ff
fe
ff
02
03
07
f8
fd
05
01
03
09
0c
05
00
01
06
00
fb
02
ff
fd
01
04
fe
fd
fd
fc
fe
ff
01
00
0b
03
05
02
ff
fe
fb
fa
fb
f8
f8
fa
f8
f5
fb
01
ff
03
fe
03
fa
fc
ff
fa
f8
ff
f9
08
12
0b
f8
00
fe
f6
fa
fe
fb
f4
08
05
ff
07
04
01
05
05
07
03
fa
fb
fc
fc
f9
fa
03
00
ff
04
fe
01
03
00
01
09
05
04
fb
fb
fe
01
06
09
05
0c
0d
f4
f6
fe
f2
f4
fc
fa
f7
fb
fe
f8
fa
02
fd
fc
03
07
09
07
04
08
02
02
02
00
00
03
fa
f6
fb
01
fb
fc
05
04
04
06
05
04
01
01
02
03
00
fe
02
fd
fd
02
04
ff
fe
fc
fd
f9
fd
fa
fb
fd
fb
fc
00
fe
07
0f
0c
07
0c
07
01
03
ff
09
0c
08
fe
fe
fb
fe
00
ff
fc
fc
fd
f4
f0
f4
01
fd
fe
fe
f9
fd
03
01
02
09
06
fc
05
05
00
f8
fc
fe
00
02
06
fc
01
fe
00
01
00
fa
fe
06
04
06
09
fe
fe
fa
fe
fd
ff
03
01
01
fc
f8
fc
ff
00
01
04
08
03
02
02
01
fb
fb
fc
01
00
01
fb
fd
fd
f9
f5
f6
ff
fe
fb
07
09
07
01
00
fe
ff
fd
fb
fd
fd
fe
f8
fa
fb
fb
01
00
fd
fc
fb
03
02
02
ff
f5
fc
09
02
0a
05
05
fb
fb
fd
fe
f5
f7
f6
fb
fd
04
fb
fc
ff
fc
f9
fc
f7
f4
f3
fa
f9
f4
fa
fb
f7
04
02
09
fe
fd
01
fb
f8
fc
f9
f7
f9
fd
f9
fc
04
06
02
fc
fa
f9
05
03
05
fd
fc
fb
f8
f7
fd
f9
f4
fc
01
02
03
f7
fd
f9
ff
03
ff
f2
f1
f1
06
01
02
0a
06
05
fb
f5
f7
f4
fa
0b
fc
fa
04
fc
f9
f8
f7
f7
f6
0a
0f
0b
ff
03
fe
02
00
ff
06
04
05
06
08
08
ff
fa
f8
02
fd
f7
07
08
ff
03
06
fe
01
03
fc
f8
f9
f2
ff
fd
ff
fe
ff
fd
fb
fa
fa
00
04
00
fb
fb
f9
02
02
fe
03
fd
f7
02
fc
f9
07
02
fe
f6
fb
fd
01
03
03
04
03
01
f9
fb
f7
f5
f5
f9
fd
fa
01
ff
06
03
07
0d
0b
f6
fd
fe
ff
ff
fe
10
10
10
02
00
ff
04
06
0a
07
03
08
05
06
04
08
07
06
15
14
13
fe
01
02
ff
fb
fa
07
03
01
03
fd
fc
00
fd
f8
fa
f7
f8
00
03
05
01
00
fa
05
00
ff
fe
fd
fa
00
fb
fc
04
01
fe
05
03
ff
06
08
09
0b
06
0a
05
06
06
f0
f8
08
f4
f6
03
00
ff
06
ff
00
ff
01
01
01
fd
fd
ff
0c
0d
0a
00
ff
00
f7
f7
fb
fc
fe
02
02
02
01
07
09
06
01
00
02
08
04
04
0a
09
04
01
00
01
06
09
04
fb
fe
f7
07
07
04
06
05
01
04
03
fd
f4
f8
fa
05
07
05
fd
fc
fc
fd
00
02
05
05
07
fa
fc
f9
f8
f5
fc
f5
f1
f8
08
06
0c
04
ff
ff
05
04
07
10
11
10
00
ff
01
fe
ff
03
fe
ff
03
fa
fd
fc
03
05
ff
0b
08
09
01
01
fd
00
03
00
fb
fc
fc
ff
00
03
01
04
05
fd
fc
fe
04
08
ff
00
03
02
fa
fb
f9
fc
fd
00
00
fd
04
02
fe
01
06
fe
04
02
fe
02
fc
f9
00
01
fd
ff
fe
fe
fe
fd
fa
fb
04
07
09
09
0c
04
fd
01
ff
01
03
03
fe
fe
01
fd
fc
ff
06
02
02
02
04
02
03
00
02
07
06
02
07
0a
06
04
05
07
00
00
fd
00
ff
fd
00
00
03
06
0a
03
01
05
01
01
03
01
f9
f8
fa
02
01
fe
01
01
04
f3
f7
04
f5
ee
fa
00
f9
f7
0d
09
0a
0e
0a
08
04
03
06
fa
fe
fb
f6
fa
f9
f6
fe
f8
f7
f7
f9
01
02
fe
08
08
07
fb
f7
fa
fa
f3
f9
04
fe
07
07
07
06
00
fe
ff
fb
fe
fe
08
01
05
f4
f1
f5
f5
f0
f0
fb
f6
fa
f7
f7
fa
fd
fd
fb
05
00
01
fc
fc
02
00
ff
01
fb
00
02
01
02
05
05
09
0b
00
04
08
03
06
07
ff
07
07
f9
fc
fa
fc
02
01
fd
05
04
06
03
03
0a
04
0b
0a
06
0b
06
02
02
0d
04
01
00
fc
fd
08
fe
02
fa
f4
fa
fa
f7
f7
02
03
00
02
01
01
00
fd
01
f7
fc
f5
fb
ff
fd
02
04
06
02
0a
ff
fc
03
fc
00
05
01
f9
f9
ff
fd
fe
04
06
01
0c
03
fa
f9
f4
f0
f7
f6
f5
fb
03
03
02
fe
f9
f9
07
05
08
fe
03
ff
fe
03
00
01
06
03
fa
fc
f7
f9
f5
f9
fa
fb
fa
f6
f0
ed
fd
f8
f7
06
01
01
ff
ff
fc
fd
fe
fd
fc
fa
fb
01
ff
ff
fd
fb
fd
fd
f8
fd
05
07
03
fa
fa
02
fa
fc
00
0d
0c
0d
00
fa
00
fd
fd
05
0b
fe
06
fb
f3
00
03
00
09
10
0b
0a
0e
0d
0c
fb
fc
fc
02
fe
03
ec
ed
f3
01
00
08
f7
f7
00
f8
fc
05
fd
fd
02
fc
03
ff
00
0c
06
09
13
0c
f6
fe
f6
00
01
f9
06
08
f7
fc
f8
01
f7
f5
fa
f4
f6
f6
00
fc
f7
01
fd
fc
fe
ff
fc
fa
fc
fc
fc
fc
f9
fe
03
fb
fd
fe
ff
ee
f6
f9
f7
f8
f7
00
05
fe
f9
fc
f8
fb
f9
fc
00
01
00
01
01
fe
fe
ff
ff
00
fd
fd
00
fa
fb
07
00
03
fe
fe
fc
fd
ff
fd
01
01
fb
f2
fc
f1
fa
00
f7
fe
03
f9
00
fd
f8
01
fe
00
03
03
07
ff
04
f6
f9
ff
f6
fa
ff
f6
fd
f6
f4
fe
fd
fb
01
02
ff
06
03
00
02
03
00
08
09
0b
fa
f6
f9
ff
fe
00
07
06
0a
04
08
06
ff
01
06
fc
04
fd
fd
04
f7
02
07
fc
01
04
01
05
00
05
f9
f9
fe
f9
f8
fb
08
03
08
04
05
05
03
05
07
06
07
05
03
02
02
ff
00
fe
08
04
09
01
fe
07
f7
fb
00
ff
0b
05
01
0c
05
07
14
05
0f
08
04
00
01
fb
fe
f3
f4
05
fe
fb
fe
f8
f8
f8
f7
fb
04
08
0b
02
06
09
06
03
0f
01
02
fc
fe
00
fe
ff
ff
fc
ff
f7
f9
02
f7
f9
04
ff
05
fe
f9
f4
f3
e9
eb
f3
ed
ef
fa
06
10
f4
fc
0a
f5
fa
02
03
fa
ff
09
fc
02
06
fd
ff
02
f8
04
fc
ea
fd
fd
f5
03
ed
f3
00
ed
f2
01
0a
fe
f7
09
05
0c
0c
03
0d
0b
fd
0e
f9
fc
ff
fc
fe
ff
04
06
0a
11
04
08
0d
f7
fc
06
ea
f0
fd
f6
fb
f9
ef
f5
04
f9
fc
fe
f7
fc
f9
ee
f9
f6
e9
f0
04
06
09
ff
02
06
fb
fa
fe
fe
fe
04
fa
fc
ff
f6
f4
f6
02
fc
00
fa
fd
fd
f7
fd
fd
02
f9
fd
fa
f5
f9
f8
f9
f9
fe
0a
1e
fe
0d
1b
05
00
0f
fc
f9
f3
0a
02
f4
0a
04
ff
08
fc
02
09
fa
02
03
00
04
0b
04
fb
fe
fe
fe
fc
fe
05
09
04
04
06
fb
fa
ff
ef
f5
00
f6
fc
05
fc
fd
0b
01
03
02
fe
04
f7
f7
fa
fc
fd
01
01
fa
03
00
f6
02
fd
f4
04
15
ff
fa
08
f7
f1
04
f9
f4
0d
09
f7
0a
f4
e7
fb
e8
fb
ff
01
01
f4
f1
f5
f5
e8
ec
f7
fe
f9
fa
ff
fc
fe
ff
00
fc
f0
f2
fc
f5
f9
05
fe
03
fc
f2
f3
fb
ec
f0
fa
f4
f8
fe
f5
fe
04
fa
02
01
f8
fd
04
fd
f7
02
fc
f1
fe
fc
f8
f6
f7
ff
f9
03
08
03
02
ff
f5
f5
f1
02
f9
f2
06
f8
fa
0b
03
0a
07
03
07
07
0d
0a
fc
03
fe
00
08
05
f9
fe
00
fe
ef
fd
f8
e5
f4
ff
f5
fb
15
07
f6
17
01
f0
0e
fa
f6
07
08
0e
08
fd
0b
02
f4
fd
09
03
04
05
ff
fd
07
04
fa
f0
f2
f7
f7
f1
00
04
f4
fa
04
02
ff
03
fa
fa
00
fd
ff
01
02
05
09
08
0c
0a
00
09
09
02
08
0e
ff
02
03
f0
f3
00
06
f8
0b
07
fd
09
0c
0a
00
00
01
ff
ff
01
ff
01
01
fd
f8
02
f8
f2
f4
f6
ee
ed
02
03
06
07
01
04
05
ff
02
05
ff
f8
ff
fd
f7
03
05
06
01
f3
fc
06
f5
ff
06
f7
03
03
fd
01
0e
03
fe
21
14
01
02
08
0c
06
02
03
03
f4
fe
01
fb
fb
08
01
02
12
09
0e
fe
f5
f3
fc
fa
fa
01
0e
0c
01
06
0d
f7
05
0f
f8
00
0b
fb
fd
0c
f4
ee
0a
f6
f2
0d
06
02
04
ff
00
01
fd
f9
fa
fe
fa
04
06
04
0a
07
0a
08
f8
fb
fc
04
0d
07
0b
16
0b
00
02
08
03
0a
16
fd
05
0a
0d
0b
0a
09
04
06
02
fa
fd
fe
00
ff
01
01
03
01
fd
02
ff
00
02
00
ff
ff
ff
00
fd
ff
01
03
fc
fa
01
fe
fa
fe
07
05
05
03
fe
fd
01
fd
fd
01
ff
00
03
ff
01
fe
ff
ff
04
07
06
06
07
0a
01
fb
ff
fc
fa
f9
ff
fd
fe
fe
fb
ff
fe
f9
fc
ff
fc
fd
fe
fc
ff
fb
fc
00
04
02
07
02
fe
ff
05
04
04
05
06
02
fd
fb
f9
fe
01
03
fe
fe
02
ff
fb
ff
03
02
05
fc
fa
fb
fd
ff
fe
f7
fb
f6
02
08
02
fb
fc
fa
fc
fd
fe
03
01
05
04
01
03
06
08
03
fb
f9
f8
fb
fa
fa
01
01
01
ff
fd
00
01
00
fc
01
02
01
00
ff
00
04
06
03
00
ff
fe
04
02
04
01
01
02
00
04
03
05
08
07
04
06
05
ff
00
02
fc
fe
ff
f9
f9
f9
fa
fb
fe
f9
fa
ff
fa
fb
f9
fb
fd
02
fe
f9
01
fd
fe
fd
fc
00
fd
00
fb
fb
ff
fc
fc
00
ff
01
02
ff
01
fe
01
00
fe
fe
03
fe
fd
fe
fe
fc
fc
07
08
03
09
0a
04
04
05
03
02
04
01
04
07
04
03
01
02
fd
fb
f8
04
04
04
02
ff
00
02
02
02
ff
fc
ff
00
fd
fc
04
04
03
05
06
06
00
00
01
ff
01
ff
02
00
00
02
fe
00
07
03
fd
01
fb
f6
07
fe
fc
05
fe
03
01
fa
fc
fc
f9
f9
ff
ff
00
02
03
04
fa
fc
fc
02
ff
fe
04
fe
ff
04
00
fd
0b
07
03
00
fc
fb
01
fa
fe
02
04
02
00
00
02
fb
fa
fe
fd
fd
01
00
fb
01
07
01
06
f7
f9
f9
f2
f2
f3
fc
fd
ff
04
fe
fc
05
01
00
0d
04
0d
fc
fe
00
fd
ff
02
fd
fc
fd
f8
fb
fa
ff
04
fe
06
08
09
05
03
07
f7
f0
f4
fb
f9
f4
f6
f7
fc
fb
fd
fb
ff
fe
ff
03
01
04
fc
fb
fb
fc
fc
fd
07
02
03
ff
fb
fd
00
ff
ff
fe
ff
fd
fb
fa
fc
05
02
03
02
07
0a
f8
f9
f9
f7
f9
fa
ff
00
00
02
01
00
00
01
01
02
01
03
04
03
08
01
02
03
ff
fe
04
ff
fe
fe
01
00
fe
06
06
06
fe
fe
fe
fe
fb
fc
04
05
03
fb
fb
ff
00
ff
fe
09
0a
08
00
ff
01
fb
fb
fc
04
03
05
04
06
07
fc
fc
fd
09
05
07
06
04
0b
00
fd
ff
00
02
00
09
08
06
07
07
04
fc
fb
ff
f8
f6
f6
03
01
02
fd
01
01
f4
fa
fa
f3
f8
fa
03
fa
00
ff
f9
fc
ff
f8
fd
fe
fe
01
f9
f8
ff
fb
f8
f8
07
04
08
02
00
03
fd
fc
fe
00
fe
00
f8
f4
f5
fa
f8
f7
00
03
02
fb
01
ff
fe
01
fc
fd
03
05
f8
fc
fb
f0
f2
f5
f9
fb
fc
fa
01
04
00
02
07
0e
0a
02
07
03
fe
00
fa
fb
02
fe
fe
04
ff
fd
04
00
fe
02
fe
fe
01
ff
ff
00
fe
ff
01
04
05
f7
fd
fe
f7
ff
ff
02
03
03
03
05
fe
03
01
fe
04
00
fd
fe
fd
fb
fd
fd
fd
f9
fa
f7
00
00
ff
02
fe
fd
0c
02
f5
09
04
f4
05
06
f7
fd
06
04
00
08
05
05
06
09
fc
fe
09
fc
00
0c
00
05
0d
0c
04
08
04
fe
02
fd
f7
fb
fc
01
ff
fb
00
fd
02
05
01
03
f9
fe
fc
f4
fc
04
00
05
07
06
06
03
02
01
fe
00
fc
fd
fe
fe
f8
fb
fc
00
01
02
02
02
05
fb
f6
00
ff
ff
00
fd
f6
f6
fe
f7
f7
03
fa
fd
0b
fa
f6
09
fe
ff
04
fc
fc
f1
f7
01
f7
f9
08
fb
00
0a
02
f9
01
0d
04
09
14
0e
11
fe
03
07
fd
fd
ff
fc
fa
02
fb
fc
02
02
02
07
08
08
09
06
fc
04
05
fb
fe
00
fb
fc
fa
f7
f8
f8
f5
f7
fd
f9
f7
02
fe
03
f6
f8
fb
00
07
01
00
04
fc
fe
03
ff
00
01
00
ea
f3
ff
f1
f4
01
f9
fb
fb
02
07
08
f5
fc
fa
f5
fa
fb
ff
fe
ff
05
03
01
05
03
01
f6
fb
fb
fc
fe
fd
fc
f8
fe
fa
fd
fc
03
fd
00
0d
fc
01
0b
05
06
02
ff
01
fe
fc
ff
fb
00
02
f9
fc
fc
fd
fb
f9
ff
0e
04
02
0a
07
02
00
05
ff
08
06
fb
03
02
fc
04
fe
04
03
03
fe
fb
fe
06
fe
06
fd
fc
05
fe
f9
06
05
06
0d
0a
08
04
fe
fd
f8
04
08
06
03
09
05
fd
05
06
fb
01
ff
0b
08
06
fe
ff
fa
01
fe
fe
04
ff
fc
0a
fa
00
0b
fa
03
fa
fb
f8
f8
fb
fd
f8
fe
fd
06
fe
fa
0b
fd
fe
08
f4
fd
04
fa
f9
07
f9
f8
12
02
01
0d
09
10
fe
fd
02
00
02
03
f4
08
07
fb
07
01
04
08
fb
fe
00
fe
00
01
fe
00
01
00
00
f8
f8
fb
f5
f2
fc
f3
f4
05
03
07
03
fd
06
06
05
08
fa
f7
01
fe
f2
05
00
f3
0a
00
03
08
03
03
08
01
02
05
00
fb
f8
00
f8
f3
ff
f3
f1
05
06
0f
fe
fe
06
ff
fc
05
00
04
07
08
0a
0b
07
07
06
f9
fd
f8
fa
fb
fb
fe
fe
fc
07
03
09
fe
fe
05
00
07
0b
03
f6
fa
03
f4
f7
03
ef
f8
fb
fb
fc
fa
fb
fc
fd
fd
fd
fe
ff
fe
02
fb
fe
05
fd
03
fb
f8
fa
ff
fa
fb
08
05
02
01
fd
ff
ff
fc
fc
02
02
03
0e
00
05
09
fa
02
06
fc
04
09
0e
ff
ff
03
ec
01
0a
02
04
00
01
06
01
01
02
fd
ff
f9
02
06
00
0b
ff
04
13
fd
fb
f7
fa
fd
f7
fc
ff
ff
06
ff
06
02
04
08
04
04
06
07
15
20
12
fa
01
fb
fc
03
fa
0d
0c
03
00
02
fc
00
03
fb
00
00
fb
06
fd
01
07
03
05
f2
0d
fc
f8
16
fd
fe
0f
02
f3
ee
01
f4
f2
fb
f0
f9
02
fd
08
fd
ff
0d
fc
ff
14
fc
04
fc
ff
06
fe
fe
04
08
02
f7
02
f6
ff
06
f9
08
11
10
fb
ff
fa
f8
00
f7
f6
fc
fb
f9
08
fa
fa
13
03
0e
26
12
02
12
08
f7
07
fd
f1
04
f8
03
ff
02
02
01
03
08
04
05
fd
ff
fb
fa
00
f8
ff
09
fc
fb
f9
fc
ed
e8
ef
f1
f9
fb
03
fc
0b
01
01
05
03
fb
f9
01
f6
f8
ff
f6
f4
01
fb
f5
05
05
07
ff
01
05
02
01
07
fe
fa
02
fe
02
07
02
11
10
f2
02
fa
f7
00
fc
f6
07
fd
07
ff
06
fd
fd
03
ff
ff
04
0b
04
0d
08
fa
0b
11
ff
0c
14
06
10
04
f9
04
04
fd
0a
00
0f
08
02
05
fb
04
06
04
fc
f6
ee
f0
f8
ed
f0
fd
ed
08
0e
0b
f9
02
fe
f9
04
00
fb
06
02
00
0b
03
01
0d
02
03
01
f2
ff
02
f7
03
04
f5
00
ff
fd
09
ff
03
0c
fb
04
f8
fb
f6
f8
fb
fb
fd
03
00
fd
00
f8
00
f6
f8
01
f9
ff
0e
ff
05
fc
f6
f8
fe
fa
f2
fb
f6
f4
f3
ec
ed
fd
fa
fa
fe
02
f8
fc
09
fa
05
0b
f5
0c
03
03
08
0a
05
0b
10
0c
ff
1a
08
f6
07
fa
f8
04
fb
01
fd
fb
fb
f2
f4
f7
f2
f1
0a
0b
0d
fd
fe
fe
ff
fe
01
02
fc
15
05
fa
12
07
ff
17
ee
f2
f3
f0
f2
ee
f1
f6
ed
0e
fe
03
0c
fb
02
10
06
04
fc
ff
f9
fe
00
fb
fd
fe
fd
f1
f3
ee
f1
f4
ec
f3
f8
f2
0c
fa
15
07
f7
03
f6
f1
00
01
02
04
ff
00
02
ff
fd
ff
f8
06
05
ee
ed
f7
fc
f5
fe
fe
ff
fa
fe
01
f9
00
0b
00
fd
ed
02
06
f1
0a
0b
fa
10
f3
06
fd
ee
02
f7
f0
fe
f4
04
f6
f7
09
f9
fa
07
f6
fc
03
0d
03
f4
f8
f2
f7
fc
f7
ef
04
f5
ed
00
f0
f4
03
f5
0d
05
08
ff
f9
fb
01
fd
04
08
06
04
ff
08
fd
fc
06
f8
00
f6
06
08
f1
0a
09
f2
0d
f7
04
fe
fa
04
f4
fe
0e
01
02
01
04
02
fc
fd
07
01
ff
fc
ef
fd
05
01
0c
17
15
16
01
f2
01
f9
f6
ff
00
07
09
fe
ff
fb
02
02
f9
ff
02
fa
00
fa
ff
fc
f9
fd
fc
f7
fb
fe
ff
fe
01
ff
fd
03
f8
f8
03
04
05
fb
fa
01
fd
f7
fd
f4
f6
f7
f7
fb
fa
fd
fc
fb
01
fc
fb
fc
fc
fe
fd
ff
01
fb
f9
f8
f6
fd
01
ef
f8
06
f6
f8
ff
fa
fc
fd
07
ff
fb
03
fe
fb
02
fe
fe
04
05
04
04
06
0c
fc
fb
00
00
fb
fd
fd
fa
fb
0c
0c
08
1f
0f
06
07
0b
0d
02
03
09
09
0b
11
f8
fe
f9
00
04
03
06
0a
0f
13
0e
0d
10
05
05
01
f4
f5
fa
fb
fe
ff
02
06
06
0b
0e
fc
fa
fa
f9
fa
f9
fe
fd
f7
02
08
0f
05
08
0d
09
0a
0e
fd
f7
f8
fc
f7
f9
03
02
04
fc
06
07
fd
03
03
01
01
03
03
f8
f9
fb
f2
f3
fc
f2
ee
f8
f6
ff
03
fe
ff
13
04
fb
03
00
fa
01
00
ff
04
04
0a
f9
fe
fd
fd
04
05
f9
fd
fd
06
05
05
02
fe
01
02
04
ff
02
ff
00
03
01
01
fe
f5
fc
00
fd
f7
08
01
fb
fe
f7
f3
fe
fc
01
02
ff
04
14
12
10
ff
f5
f3
f6
eb
ef
01
f8
01
02
ff
fc
fe
fa
fc
f8
f6
fc
04
03
05
fe
03
08
f8
fd
13
f9
f1
f2
fb
f8
f9
fa
fc
fc
fc
fd
fe
01
04
00
01
03
02
f9
f9
fa
01
fb
f6
07
fc
f1
f2
f8
fd
fc
02
09
ff
03
04
02
fb
f7
01
fd
fd
00
04
07
fe
fe
f8
ff
fe
f5
fa
f6
ef
ec
f1
f7
f9
fe
fc
fd
fb
f9
02
fe
fc
07
04
02
08
0a
12
fe
09
0e
f9
01
04
f8
f8
f8
0b
08
10
0b
02
0b
0a
04
08
f5
ea
ee
f6
f9
fb
06
11
15
08
03
f7
03
fe
f7
ff
f7
fd
ff
f7
fe
00
f6
fc
fe
f3
f9
f9
00
f6
f9
fe
f4
fc
fc
f3
f9
f5
f9
01
f6
f5
0c
00
05
fb
fe
01
00
01
05
0a
06
02
f4
f4
f6
fe
fc
f8
05
01
f9
0a
01
f8
06
fd
f6
04
00
fe
04
f8
ee
05
fc
f4
03
fe
fc
ff
01
00
ff
ff
01
01
00
00
fc
fa
fc
f7
f5
fa
f3
f1
f6
0a
07
01
04
02
01
fe
f8
fc
f2
f9
ef
f6
fd
f8
fe
fe
fd
06
04
07
03
fe
00
ff
fe
f9
f9
f9
f3
fd
f8
f1
fa
f5
ef
f9
fb
f5
ff
fc
fd
00
fe
02
00
03
05
05
0b
0b
00
07
05
f9
fa
06
f9
f6
03
07
03
0c
07
04
05
08
03
03
05
00
fc
f5
f7
fa
fb
f8
fc
03
01
00
f8
04
07
04
08
09
0f
0b
0b
fa
00
03
01
07
0b
08
0a
09
f3
f4
f7
fa
fa
00
04
03
08
f5
fb
0c
03
04
0c
0e
09
0a
07
02
fc
0a
00
f8
0a
fd
f6
10
0b
0d
fe
ff
01
fe
00
04
fa
fe
fc
fb
fd
fc
fb
fc
fc
09
00
05
09
04
08
fd
f7
fa
06
05
05
02
00
00
fe
fc
fc
f6
f7
f6
fe
fb
fa
05
01
04
ff
fb
00
fe
ff
04
08
02
0a
03
02
ff
07
07
05
04
01
05
fb
fd
fd
fe
ff
00
fe
fb
fd
03
01
01
08
05
08
07
05
05
04
06
05
08
0f
12
0d
13
10
0b
04
09
0e
0a
0c
08
08
09
03
fb
00
00
ff
01
fc
fe
01
00
f9
fb
06
fe
fe
0d
06
07
05
03
08
03
04
07
08
08
0a
07
04
02
0b
0b
07
04
ff
00
04
03
05
fb
fd
02
f9
f7
fe
f4
f3
fa
fc
fc
01
02
01
05
fe
fc
fd
f3
f2
f4
fd
fb
00
f9
ef
fa
f9
f1
fb
00
fb
05
03
ff
fa
03
fa
f9
08
03
fe
f9
f5
f9
fa
f8
fb
fd
fc
fa
05
03
01
06
03
fe
07
07
01
06
03
0a
07
03
09
00
03
08
fc
ff
fe
08
0c
09
07
07
07
fe
f7
f7
fe
f8
f4
fc
fb
fa
fe
f5
f5
07
fe
fc
0c
08
09
f8
f7
fa
f8
f7
f9
fd
f9
02
fe
f2
f0
0a
00
02
0d
0b
0f
fb
f3
f4
04
07
04
04
09
07
02
ff
06
fb
fb
ff
fc
fe
ff
f9
f6
fa
fa
f9
fe
fb
fd
fd
02
00
00
01
01
01
03
ff
02
02
fe
fd
02
ff
ff
06
05
0a
fd
fb
fa
05
02
00
06
03
05
05
05
08
fb
fb
00
fe
fa
fc
01
fd
fe
00
fe
00
0b
0b
0e
0f
0f
0f
00
04
07
f7
fb
fc
0e
0c
11
ee
f0
f5
ef
ed
f3
05
01
03
fe
fb
fd
fd
fe
02
06
f8
01
ff
fa
ff
09
09
0d
03
01
01
01
02
03
fe
01
01
f9
f2
f5
fa
fb
fd
f7
f7
fd
02
fb
02
0f
04
04
11
08
05
f6
f6
fc
f9
f5
f7
fb
f9
fa
01
fe
03
06
00
04
0a
07
09
fe
f8
fa
0b
01
ff
0d
05
04
f7
ee
ef
f8
f5
f8
fd
fc
01
fc
03
05
f3
f7
04
ff
08
0b
ff
ff
00
01
03
02
02
04
04
f6
f5
fa
f1
f3
f7
fa
fb
04
01
ff
01
01
01
ff
fb
fa
fc
fa
f4
fb
01
fd
03
0d
0b
0c
05
02
02
08
09
0b
0b
0a
0b
03
01
fa
06
02
fd
08
07
ff
08
00
05
02
00
03
09
05
06
0b
09
0f
03
01
07
04
02
05
fe
fd
00
f7
f8
f9
f7
f7
fa
05
06
02
f4
f6
f8
eb
eb
f3
ff
f8
f6
05
fd
01
09
03
08
05
03
08
fb
f6
fc
f5
ef
f6
0c
0d
0c
fc
fa
ff
fe
fa
01
f0
ee
f0
f6
f3
f4
fe
fc
fb
01
04
04
f6
f2
f9
f7
f4
f9
f0
f2
fa
f7
ff
ff
fe
04
ff
03
02
07
01
02
03
03
04
01
01
04
04
00
01
05
00
03
07
03
05
03
fd
fd
fc
fe
fe
fd
ff
01
fd
fe
01
fd
01
02
fd
05
05
06
02
03
03
03
00
00
f7
f8
f9
fb
ff
02
ff
00
02
03
01
01
01
01
02
02
00
fd
04
05
04
02
00
03
02
03
04
0a
09
06
f8
f5
f8
f7
f4
f8
fc
fc
fc
fe
fd
fe
fc
f8
f9
05
05
05
01
02
00
ff
ff
fe
fd
fe
01
ff
01
01
fe
01
02
0f
0b
0c
05
fc
fc
fb
f6
f7
04
03
02
06
07
03
06
09
06
01
fd
00
ff
00
fe
ff
fc
ff
fb
fb
fb
fb
fb
fb
fd
fe
fb
fc
fe
fe
fe
ff
01
fe
01
01
fe
fd
fe
01
02
03
fc
fd
fd
07
0a
03
ff
01
fd
ff
01
fb
03
00
01
ff
ff
00
00
fe
03
fc
02
01
00
fe
01
ff
fe
01
07
09
0a
fc
ff
03
fd
ff
ff
07
04
05
05
04
03
03
02
00
fd
fd
fd
f8
f9
fa
fc
fa
f9
fd
fa
fb
fb
fc
fa
fe
fd
01
07
06
06
04
02
03
00
00
00
08
0b
0c
09
0b
08
05
02
02
02
fd
02
fa
f6
fa
fd
00
02
fb
ff
03
fd
fe
06
01
ff
06
fe
fd
fc
03
05
03
03
02
03
fd
fc
fc
fb
fb
fa
fd
fb
fc
fc
fc
fb
fa
fa
fc
fc
fa
fd
03
07
03
ff
03
00
ff
02
ff
03
02
02
fd
fd
fc
ff
fc
fb
ff
fd
fd
ff
fe
fb
fe
fc
fe
fe
03
03
fb
fe
03
fe
ff
05
fd
01
03
03
0a
0b
02
08
07
fe
fc
fc
fe
fe
fc
ff
00
fd
07
ff
04
09
08
09
01
02
01
fe
fd
ff
01
03
00
06
0a
04
02
ff
01
ff
fd
fe
fc
fd
00
fb
f7
fc
f8
f3
f8
f4
f4
f4
fd
fa
fb
ff
fc
02
ff
fb
02
00
fe
fc
fc
fc
fc
fb
f8
f8
ff
fe
fd
03
03
03
03
ff
00
fd
01
01
fe
00
00
fe
fe
00
fc
fa
fe
fb
fb
fd
fc
fd
fd
08
ff
fc
01
fb
fc
03
00
00
00
01
01
01
01
01
01
02
00
fd
01
00
fb
fc
f9
ff
03
01
ff
fe
ff
fd
fa
f9
ff
fb
f9
fb
f9
f9
fc
f8
fd
fe
fc
ff
fe
fd
fc
03
04
01
03
05
04
ff
fd
fb
fa
f6
f6
fa
f6
f7
fb
f9
fb
fc
fa
fc
fd
fd
ff
fc
fe
fb
01
01
00
04
04
04
0d
0e
0d
04
07
03
05
03
fe
00
fe
00
fe
fe
fe
fe
fe
ff
fd
ff
00
f8
f9
00
fb
fa
fe
00
ff
fe
ff
01
fd
00
00
fc
fc
fd
fe
06
06
07
fe
ff
02
fc
fe
ff
fc
03
01
00
02
01
01
ff
00
08
08
06
fe
fc
fb
ff
fc
fc
fd
fb
fc
fd
fb
ff
01
01
04
06
02
06
00
fb
02
fc
fb
fb
fd
f8
f8
fd
fa
fd
fd
00
01
03
05
04
fd
fc
fd
fd
02
ff
00
01
02
05
05
05
02
02
04
fd
fc
ff
ff
fb
fd
fc
f6
fc
00
fe
00
f8
f6
f7
01
06
02
ff
03
fd
02
fe
02
03
0a
05
01
09
04
fe
06
01
fd
ff
01
fb
f5
f8
01
f6
fb
01
ff
fe
ff
03
03
04
04
03
fd
fa
00
fe
f9
fa
fb
f6
f9
fe
00
02
02
04
04
fc
02
ff
0a
05
0a
fe
f6
fd
fb
f6
f9
01
03
03
05
07
05
00
01
ff
03
fe
02
02
fc
01
fb
f3
fb
01
fa
ff
06
03
04
04
00
02
f8
00
fd
f6
fe
fb
f6
fa
f7
04
02
03
07
03
06
03
fe
fc
01
fe
fb
01
fe
fc
07
07
06
fb
03
00
fa
fa
f9
f4
f3
f5
fd
fd
00
fc
ff
05
00
04
07
01
02
fd
01
01
fe
00
ff
fe
fd
fb
00
04
00
01
01
fd
ff
ff
fc
00
01
00
01
0a
04
04
f6
fd
fb
f9
02
ff
fe
02
04
f9
ff
01
f7
fc
fe
fb
00
01
fb
02
ff
fb
06
01
f6
00
fb
06
0b
06
05
06
03
05
04
03
f5
f6
fa
f2
ee
f2
ef
ee
f4
fe
fe
01
fb
fb
ff
f4
f6
f8
07
06
01
08
08
07
06
07
05
ff
05
04
fd
05
07
ff
05
06
fc
05
01
fb
02
ff
f9
02
fc
0a
0a
0a
01
04
06
fd
fe
ff
ff
00
ff
04
06
06
05
08
07
fa
f9
f9
01
08
fc
03
06
00
ff
fb
fd
04
ff
00
ff
fe
fe
01
fa
ff
fe
f3
fb
fa
f4
f5
f9
fb
fd
01
01
00
f6
f6
fb
0b
06
08
05
06
07
f0
f1
f0
03
03
04
03
ff
04
06
02
04
17
14
16
11
19
17
ff
05
06
f5
01
f6
f1
fe
fb
fa
00
ff
fd
f9
fd
04
fd
fd
0d
05
02
fa
04
fe
fc
01
fe
fc
fc
fc
fe
01
ff
fd
ff
fe
fb
ff
fb
0b
0b
07
06
0a
04
fe
fe
01
f4
fc
f5
ff
07
01
01
07
06
ff
ff
ff
01
02
00
00
00
ff
03
0b
00
04
0a
ff
ff
06
fe
02
ff
03
01
00
08
03
04
06
fa
04
fe
f8
05
fe
fa
04
01
03
03
04
ff
ff
04
fb
f9
fe
fb
01
ff
fe
04
03
06
09
07
f8
fd
f9
00
07
03
fa
01
fb
f9
fb
fc
ff
fe
fe
03
02
03
f7
f6
f7
fb
f7
f4
04
00
00
03
00
ff
08
06
05
06
05
06
f8
00
00
fb
fe
ff
ff
00
02
fa
f6
f9
fd
fc
fb
03
02
fc
fc
fc
f9
fb
fd
fb
fe
ff
fb
fd
04
00
01
07
03
f4
fb
f7
fb
fc
fb
04
00
fd
fe
fe
fe
ff
fe
00
fd
01
07
f8
fd
05
f6
fb
fb
fe
06
03
fb
03
f8
ff
01
00
fc
04
01
02
05
03
f0
f1
f8
ee
ea
f6
f8
ff
fb
06
03
04
05
0a
08
06
0a
06
fc
fc
f8
0c
1a
0b
0b
0b
0b
f5
f5
f7
00
04
ff
f7
01
fe
fb
f9
fa
0f
12
0b
09
0c
07
fc
00
01
f8
f7
f8
f7
f3
f7
fd
fe
02
ff
01
07
f6
fe
fd
fc
f1
f7
16
10
fe
0a
0b
07
f5
f2
f7
f3
f7
fd
fc
06
01
f3
f4
f7
fd
01
03
f9
f9
05
fc
fe
02
03
06
07
fd
fa
fc
03
08
06
09
0b
0d
00
06
02
fe
f7
fa
16
17
15
0c
1f
0e
fc
fc
00
fd
fb
f6
06
0c
04
08
08
06
fc
fa
fc
07
06
05
00
02
ff
fd
11
08
f5
ff
fc
08
0c
08
fe
ff
fa
f9
fd
fa
f2
f4
01
05
fd
02
05
09
07
f4
f1
f7
fb
fa
fc
02
00
ff
f5
f1
f2
fb
fc
fb
00
fe
fc
fc
fd
fc
01
03
03
05
08
02
00
fd
fc
03
0f
09
0a
0c
07
fe
fa
fe
01
ff
06
fc
f8
fe
fb
05
ff
02
07
03
01
04
ff
fd
01
fb
f5
fb
f6
fe
ff
ff
f8
fd
fe
08
08
06
fc
02
fe
fa
f5
f9
07
18
16
07
10
04
fc
fc
fe
fb
fa
f9
f8
fc
f8
fa
fd
fe
00
fb
00
fb
f7
f9
f8
fb
fd
fd
f7
fd
06
f9
f9
fd
fe
fd
09
0b
0d
06
04
0b
fb
fc
fb
06
04
02
0d
09
07
00
01
fa
fa
fb
f9
f9
fa
fc
f3
f7
f7
02
03
ff
10
04
00
f4
f5
f7
01
07
05
fd
00
01
fd
01
fd
f8
fd
f2
f6
fc
fa
f6
f6
fa
fa
f5
fb
0d
03
04
fb
fc
fb
04
08
02
ff
08
ff
fc
02
04
0a
0f
10
02
05
08
f9
fd
fb
10
13
13
01
f9
04
fc
f6
fb
0a
03
09
0e
0c
0c
fc
fb
fc
00
02
f7
f3
04
f8
fb
f8
fe
0b
00
04
17
10
0c
f9
f5
f8
01
01
fc
fb
ff
fc
0c
07
0d
f4
f6
fa
07
05
09
fb
f7
fc
ff
fe
06
fe
fb
04
01
ff
fe
ff
fe
fe
fe
fe
fd
06
0a
0a
f6
f5
f7
fc
fd
fb
fc
f9
02
03
03
09
05
0a
10
f8
f6
fb
01
ff
08
01
fe
04
fd
fc
fe
00
03
02
ff
09
00
fe
f9
fb
11
0c
0d
04
fe
02
f9
f5
f8
fe
fe
06
ff
07
07
f4
f4
f6
f9
fc
fc
ec
f6
f2
f2
f6
f5
f6
ff
fb
06
08
04
f9
f5
fc
fd
03
02
05
05
07
f7
f9
ff
fa
fd
0a
f4
f5
fc
f4
f7
f6
f0
fb
f3
0a
17
0c
ff
ff
02
fc
01
02
f4
00
fb
f0
ee
f2
fb
01
fd
06
0e
0b
f7
f8
fb
f3
fa
f0
fb
05
f6
fb
f7
01
fa
f3
f7
f5
f0
f1
04
08
fe
ff
fa
f8
f8
ed
f6
03
04
ff
09
04
02
0a
01
ff
fc
02
00
02
0a
08
fb
00
0f
f7
f7
f6
fe
f9
fb
09
03
00
07
0c
08
0b
0d
07
0d
08
ff
01
02
ff
02
00
fe
ff
fb
fa
01
08
02
fd
fc
f6
02
f8
f0
04
01
06
08
06
06
02
04
03
f8
f5
fc
fc
f7
fc
fd
ff
00
f9
06
06
ee
f9
09
f5
fc
10
fb
fb
f8
00
fc
fa
fa
f7
01
06
01
fc
ff
fc
fa
02
fe
03
12
0c
05
0d
04
01
0c
08
01
00
01
01
fb
fa
fa
f4
f2
f5
06
04
02
f8
f6
f8
00
f8
f9
ff
0a
09
fc
06
09
fe
fd
00
00
fe
02
fd
f9
fb
ff
fe
fe
ff
ff
00
02
04
04
08
04
04
04
f9
ff
fc
f4
fb
04
fa
fa
f7
05
07
f1
fd
0b
ff
fe
07
00
ff
02
03
01
fe
08
06
0a
0d
02
06
08
01
01
0f
0b
0f
fd
f9
f5
06
fb
f5
01
f5
f8
01
07
04
01
05
04
0a
02
00
fc
00
f9
f2
f0
f8
f1
ec
f8
03
fd
fc
04
fc
fa
06
fb
fe
05
ff
02
0a
04
04
08
06
fd
07
0c
0b
ff
03
06
fc
f9
fe
09
02
ff
04
f6
f1
09
fc
f9
f5
fc
fc
f8
f9
fb
f5
f2
f4
00
00
08
fe
ff
01
fe
fa
fc
fb
09
0e
fc
04
04
04
fe
f5
02
05
06
fa
fb
01
02
04
03
fe
fd
01
05
03
03
05
03
ff
f9
fa
fa
00
01
ff
06
fd
ff
0c
11
12
fe
fa
04
03
f6
f7
11
13
11
06
04
03
f8
fa
f7
f8
f9
fd
fb
fc
06
f2
f7
fe
06
05
0e
04
05
0f
06
09
10
0a
04
10
fb
f8
04
ed
f0
f2
fe
fd
f8
f8
fa
f9
ff
ff
02
06
04
0e
fc
fb
05
f4
f2
fb
07
03
09
01
fc
ff
0a
fb
02
fb
02
06
f6
00
02
fd
03
04
06
09
04
fc
fc
fc
fc
f9
03
02
00
fd
07
06
ff
08
05
01
01
fc
03
f7
f3
f9
f8
f6
f6
14
0f
05
02
f5
fe
f7
f0
03
00
fe
01
fe
ff
ff
fe
00
ff
f5
f1
fa
f2
f5
fb
f5
f6
f9
03
00
01
fc
01
fe
02
02
04
ff
07
04
08
0a
03
0e
0a
07
f8
f7
f5
fc
f8
f7
f4
f8
f8
fd
04
fd
02
02
fc
fe
fe
fc
00
fe
f6
fd
f3
f0
f6
eb
ee
f4
f4
f5
f8
f8
f8
f4
fb
fe
fc
f7
01
09
01
09
0d
07
10
02
fc
02
03
fb
07
0e
fe
05
04
fc
fd
f7
ee
f7
fa
f2
f8
fd
03
08
0d
12
14
04
ff
03
fb
f9
fd
f9
f8
fb
fe
01
02
02
f9
00
07
01
03
03
fc
00
ec
e9
f4
fc
f5
fc
0c
0e
0e
fd
fb
04
f7
f9
01
fd
fe
03
00
04
04
03
08
03
05
05
04
fc
fb
fa
ff
fd
ff
02
03
02
02
03
00
f9
f9
fb
f6
f8
fa
00
00
00
03
00
01
02
ff
01
01
01
02
fc
fe
ff
fd
fb
fc
f9
00
01
01
04
ff
fd
00
fd
fc
f5
fa
fc
f9
f8
fa
f9
f9
f8
f2
f7
fe
f8
fe
01
fd
00
ff
fd
fb
ff
fb
fd
01
fe
02
12
10
09
10
15
16
04
0e
17
03
07
00
02
03
ff
ff
fb
fb
fd
02
05
ff
03
03
01
03
fb
05
00
04
fc
fa
fe
00
fd
ff
01
ff
ff
fc
fb
fb
fb
fa
fc
01
02
06
03
08
07
fe
02
fd
f9
fa
fc
f9
fd
02
f7
f9
fe
fb
f9
fa
fd
fa
fd
fe
fc
fd
fa
f9
fb
fa
f8
f5
fe
fb
f7
f8
f5
fb
f9
f4
fe
fb
fa
01
0a
fc
f2
04
02
ff
02
05
06
fd
01
08
05
06
09
0a
0a
04
f1
ef
f2
f5
ef
f5
fb
f5
f6
fe
fe
fc
f8
f7
f7
fa
f9
f8
fd
fd
00
05
01
04
05
03
02
fe
f9
05
03
fd
03
04
01
04
03
fe
fc
06
04
03
0c
08
07
0b
09
08
10
09
08
0f
0b
09
ff
fe
00
ff
00
03
ff
fe
00
0d
15
15
1b
19
14
1e
17
0d
fb
fd
fd
f5
f8
fa
fa
fc
fd
ff
fe
fd
01
04
03
00
05
04
ff
fd
f9
01
fe
fd
fb
fe
00
f0
e8
eb
f5
e8
ef
fa
f2
f8
fa
fb
fd
fc
fd
fe
fc
fd
fc
f6
f5
fb
f8
f8
fc
fe
fb
ff
08
08
02
0d
11
0d
03
08
0b
0b
0e
08
0f
12
0a
02
00
fd
e2
e2
e3
e1
dc
e0
e6
e1
e5
ff
ff
05
04
04
05
00
03
03
fd
fe
fc
f8
fd
fa
f1
f8
f8
fb
fa
fe
fe
fe
fe
01
fe
f8
fe
f5
f4
00
fa
f7
01
fc
fa
f6
f2
fe
f6
f6
01
fc
fa
f9
17
14
11
15
19
1a
12
16
1c
fc
f6
f8
fd
f6
f9
fd
f9
fd
ff
fe
fb
fd
fc
fc
fa
fc
f9
fa
f9
fb
fe
f9
fe
f9
fa
f8
fc
03
07
01
07
09
04
07
fe
02
ff
01
01
01
01
04
03
03
fc
fc
fd
ff
fd
01
08
08
0a
fa
f9
00
fd
fc
fe
00
ff
fa
f1
f5
f6
f7
f8
fd
ff
fe
fc
02
05
02
02
fd
01
fe
fb
ff
01
01
05
03
ff
00
02
fd
fd
07
0c
0f
0c
0e
0c
0b
0a
08
fb
01
01
f5
f4
f7
f7
f2
f6
fd
fb
fb
02
fd
fc
01
fd
ff
00
fe
02
ff
fd
ff
fc
fd
fe
08
ff
fc
0a
02
03
06
03
03
ff
06
04
fb
fe
02
fc
fa
fc
fa
f9
fb
f1
f0
f6
f5
f3
fb
05
06
03
02
05
01
05
09
04
09
05
02
05
03
04
03
07
09
fd
00
00
fe
fc
00
fc
fb
f9
fd
fd
fa
fd
fc
f9
02
fe
05
ff
fb
02
fa
fe
06
fe
03
09
00
05
ff
00
ff
fa
f9
f4
f5
07
03
00
00
fd
fe
00
fc
ff
fa
fb
fa
f6
f7
f6
f6
f4
f6
08
06
07
fc
fe
fd
f6
fe
00
02
01
fe
f7
f4
fa
f7
ef
fb
00
fc
fd
00
fd
fc
ff
fa
fc
09
04
02
0e
07
07
06
02
07
08
fe
fb
0c
05
f7
01
03
05
03
06
f9
ff
fd
f7
f9
f9
f9
05
03
09
00
fb
03
01
fd
ff
ff
03
0a
09
0e
13
08
07
0a
fb
ff
f5
f7
f6
f1
f8
f5
f6
0f
0e
08
03
01
fd
ff
fe
f9
fc
fe
02
fd
fe
03
fe
02
08
fc
f9
f7
08
04
01
02
ff
fc
fc
fc
fe
f5
f8
fb
fc
03
01
f9
f9
f8
04
04
05
fd
f4
fc
13
07
01
12
03
ff
fb
f5
f6
fc
fd
0b
f5
f9
0a
f4
fc
04
0b
00
0e
07
03
13
f8
f3
05
02
ff
f9
fd
f8
f8
f4
f2
f4
fb
fd
fe
f6
fb
ff
f9
fd
fe
06
f8
f6
01
f6
fc
04
fb
fe
02
fb
07
04
04
12
02
fd
08
f5
f9
fe
04
05
07
07
08
04
f5
f2
fb
f1
ee
f1
ef
ef
f2
05
02
07
ff
fb
0c
04
06
0e
05
02
02
fb
f7
f6
00
fd
fc
05
08
01
06
04
01
fd
fd
fb
fb
fc
fd
fc
fb
02
fd
03
07
fa
01
ff
fc
04
06
fb
fc
01
fd
fd
fd
fa
f6
f9
fd
f8
fc
01
00
01
fe
f7
fc
fa
fa
fd
03
03
fb
f4
f9
f6
f2
fe
00
ff
02
fe
00
ff
fd
00
04
06
f7
fe
01
f5
ff
01
fd
04
08
05
06
0a
05
03
0b
f6
f2
f5
fa
00
fc
fa
fb
f7
fc
fd
f9
fa
00
04
f5
fc
fb
f8
fc
f8
f6
ff
01
f8
fa
fa
fa
f1
f3
10
f6
05
12
ff
0a
03
f8
fe
ff
fb
01
01
ff
fd
02
0c
02
07
00
fe
04
fd
fe
fd
f7
fb
0b
03
fe
06
fd
f9
07
fd
f6
fd
08
07
0f
14
16
f2
ee
f1
fb
f5
f9
03
fc
f1
0b
05
fc
fe
fe
fe
ff
00
ff
00
ff
ff
fc
fd
fc
02
03
00
ff
03
02
02
05
04
fe
ff
fe
01
00
fc
02
fa
fc
0a
fa
03
fe
f6
fe
f9
f9
f6
ff
f8
f8
00
fa
fe
06
fc
f2
fe
f8
f3
fd
01
02
09
fe
00
ff
f8
fa
f4
f1
f5
01
02
ff
02
fe
ff
fb
ff
05
fa
f9
f8
f5
f6
f9
fb
f7
03
fd
fe
05
fc
02
04
03
05
02
fe
fb
fc
00
ff
01
ff
fa
00
09
09
08
06
04
08
03
ff
08
06
01
07
04
04
08
fe
08
08
0f
08
05
09
01
03
00
fa
00
12
10
10
08
0d
0e
06
0c
0b
03
09
02
0b
0b
05
05
03
ff
01
02
fe
fb
fb
fa
f8
fb
f8
01
fd
fd
04
fe
02
0d
05
07
00
03
ff
0a
0b
06
01
fc
f8
00
04
02
fa
fa
fb
fc
f9
f9
02
00
fe
fc
fa
fc
00
f7
fd
fb
f9
fc
f9
fb
fb
03
00
03
07
09
08
03
04
03
00
fd
01
01
00
01
04
fe
00
02
fc
fc
f9
f8
fa
fc
f9
fb
fc
f6
f9
f4
f9
f9
02
00
fe
10
08
06
01
03
03
02
01
fe
00
ff
ff
fa
ff
fc
f9
fd
fc
fd
fe
00
f6
f0
f7
ff
f7
ff
04
01
06
06
06
03
04
02
00
02
03
02
02
03
02
fc
fb
f9
ee
f1
ed
01
fe
01
fa
fa
fd
fe
f9
01
fd
fe
01
00
fe
00
fc
fb
fb
00
fe
00
fa
fa
f8
01
fd
ff
04
09
03
03
01
ff
f6
f9
f7
f2
fd
f9
04
09
06
07
07
00
f7
fa
f5
02
02
09
0a
0d
0e
fd
fc
fa
09
05
06
ff
f8
fc
f9
fa
fb
f6
f7
f8
fb
f6
f7
00
fa
fc
00
fa
ff
07
01
05
05
05
00
0a
06
04
09
08
02
f4
f3
f5
fd
f9
01
03
ff
08
fd
01
02
03
09
0c
04
04
09
05
00
01
06
01
00
09
06
05
f2
f2
f2
f6
fd
0e
0e
0e
1a
01
01
01
01
03
03
f9
f8
fb
fb
fd
fa
02
04
00
ff
03
fb
fd
fd
fe
00
ff
01
fb
01
03
f9
f9
fa
04
02
07
09
02
07
02
fd
01
f9
f6
f9
fa
f2
f5
04
fd
fe
fe
fb
fc
fc
f7
f7
f7
f6
f4
f8
f7
f5
03
06
00
f7
fa
f7
fa
fa
fa
0d
0c
0a
09
07
01
ec
ee
e8
f4
f6
f4
ff
01
ff
06
04
08
fc
fd
fb
08
06
08
f9
f8
f8
f7
f4
f9
ff
01
fc
00
fd
fa
ff
f9
fb
07
0c
0a
09
06
06
ff
fb
01
03
01
06
09
07
0e
00
fe
fe
f0
f2
f6
ff
fb
f9
1e
14
12
ff
fd
fe
fd
f4
f7
f3
ea
f0
ff
02
03
05
03
03
05
02
01
0b
10
0c
09
02
05
ef
ee
ed
f8
fb
f7
fa
01
00
ff
0f
06
01
02
02
00
01
02
01
ff
00
00
01
00
ff
00
fc
f5
f5
f6
06
06
06
0a
08
0a
03
05
03
fd
fd
fa
08
09
09
00
03
02
04
05
06
02
02
01
fa
f7
f8
f9
f9
f3
f3
f5
f3
f1
f4
f6
f8
f8
fb
fb
fc
fd
f3
ed
f1
02
04
04
05
08
07
05
03
04
f4
f5
f9
00
03
07
0f
0e
13
04
07
04
01
ff
fe
fd
ff
fc
fb
ff
fc
04
02
01
02
01
fa
02
01
04
f6
f3
fa
fe
f7
fd
fb
f9
fa
fc
fc
fe
0e
08
0b
f7
f5
f5
f7
f5
f9
f9
f4
fd
f5
f5
fa
fd
fb
00
11
09
0a
ff
0f
04
00
08
05
fa
08
00
ef
f8
fb
e4
e5
f2
ed
f3
03
fa
f8
f9
fc
06
06
fe
09
0e
f8
f7
f9
ec
ee
f0
fd
f7
f9
fa
fa
04
fa
f9
04
01
fd
01
00
ff
00
f2
f0
f7
f9
f3
f7
10
08
07
08
01
f8
0b
09
f6
f7
f6
0b
f7
f1
0e
02
f7
01
fb
f7
04
fa
fa
08
00
04
07
03
09
0f
fd
04
0a
fa
fb
0b
fc
f8
0b
01
f3
05
13
f4
fd
f1
f4
f3
ea
ed
f2
f8
02
04
f7
fd
00
ec
f6
fc
f5
09
07
08
03
0e
ed
eb
04
f2
f2
0c
ff
fd
ff
fc
f8
fb
fd
fc
00
03
fb
01
f0
e6
f2
e1
e2
ef
1a
1a
14
04
09
09
04
0b
04
fd
fc
01
01
03
fe
0b
0b
ff
09
09
08
f8
fa
ff
f9
ff
01
f1
f2
fa
f1
f3
fd
ee
f0
fc
fd
fb
02
ef
ef
06
fa
f0
03
0f
07
fe
09
03
06
fa
0a
11
f6
fa
01
fc
fc
03
07
06
12
f1
f7
f5
ec
f4
f5
f7
ff
f8
fa
f4
fd
f4
f5
02
f9
00
0e
fe
02
fd
06
0b
fd
05
0d
01
10
0a
10
0c
05
0b
fe
ff
07
17
09
0e
1a
11
0e
17
0f
0d
f4
fd
05
ec
f7
03
f3
fa
07
f9
f9
fc
ea
e9
fb
e4
01
0d
08
06
0b
00
01
00
06
07
08
ff
fc
ff
f8
f8
fc
fb
f9
f1
04
f8
00
0d
04
06
fc
ff
fe
ff
f5
ff
fd
f5
f7
fe
f9
fd
01
fd
ff
fc
fc
fe
fd
fe
ff
02
06
fd
fb
00
f7
f6
fd
ee
05
fc
f6
03
0e
0e
00
07
fd
14
0d
04
04
fb
fd
03
08
06
f7
fc
fe
fa
fa
fa
0f
0b
07
0b
0c
00
0a
0a
fd
0b
07
03
fa
fc
0a
fa
f8
02
0f
09
0a
f4
f0
f9
ec
f0
f6
ee
fd
fd
ee
ef
fe
e1
e2
ec
f3
ea
ee
f8
00
06
f9
02
04
ef
04
00
06
03
03
fb
f8
00
01
f5
f6
13
fd
07
06
f7
01
fe
f2
ff
f5
f6
07
f8
f7
05
03
ff
06
f1
f3
f2
e8
ec
e7
f4
f2
f4
f6
fc
06
15
0a
ff
1a
14
fe
fb
fd
01
fc
fd
00
fc
fd
00
fb
f4
f7
f2
eb
ee
ed
e6
ec
21
14
00
0b
00
f8
f9
fd
ff
fa
fb
05
fc
f8
09
f3
fe
0c
f3
f4
f3
ed
f2
f0
ff
ff
fd
0c
ef
fd
05
ea
02
01
f3
ff
09
02
04
fa
fe
fd
07
10
06
ff
fa
fb
f5
f8
f8
fe
fb
fd
12
0b
f2
17
11
ff
0d
0a
00
08
08
fd
08
07
fe
0e
0b
04
ed
00
1b
f5
ff
0f
01
fd
09
0e
08
02
fe
00
fc
f4
fb
fb
ff
fc
ff
03
00
fb
0b
06
fc
02
06
09
01
01
04
08
06
07
0f
06
f9
07
09
fb
0a
05
f7
fb
f2
fd
fa
f2
fd
fc
fd
07
01
fc
fe
07
00
07
0b
04
00
04
00
ff
02
fc
fb
fc
f9
f7
fb
f6
f6
fc
f8
fc
fe
fa
00
f6
f8
fb
ff
fc
00
01
fd
ff
01
fe
01
f9
fa
fc
0b
0a
05
02
01
07
09
00
05
01
f7
00
fb
f6
ff
06
fb
05
0b
04
0b
00
fa
fd
fa
f5
f5
fe
fd
f9
fa
f8
fc
fa
f5
f7
f8
f7
ff
07
05
02
04
fb
00
0e
08
0e
01
fd
01
0b
04
0b
0a
04
0c
ee
ee
ee
ff
fd
03
10
13
14
08
08
0b
05
01
03
fc
f4
f7
01
fd
fd
09
0a
09
05
07
04
fc
01
fc
ff
02
03
04
01
00
06
09
0c
09
fe
ff
0d
06
02
01
fd
ff
fb
f7
f9
ff
fe
fe
ff
fa
03
ff
f8
01
f9
fc
fd
fb
f4
fb
f8
ed
f9
f9
f2
fb
fa
fe
03
02
fa
f9
09
00
f8
fb
fb
07
f8
02
0c
01
09
0d
fc
fd
fa
fd
fa
fa
02
fd
03
05
ff
f6
04
fa
f8
fa
f5
f4
00
06
09
fd
fc
02
fc
fc
f9
03
04
01
f4
f2
fd
f0
eb
fa
f4
ef
f6
f9
f2
f1
07
08
01
01
ff
0a
f4
f3
03
fb
fc
03
04
ff
03
04
f9
fd
0c
05
ff
00
ff
12
ed
f6
06
f1
f5
fe
00
fd
fd
04
01
01
02
02
00
fb
f5
f9
ff
f6
f9
00
fa
fa
fe
f8
fc
0a
fa
fa
0d
00
fe
fe
07
0a
ff
fe
fb
06
00
fc
fe
f9
f7
fc
fe
fd
ff
04
ff
fa
f1
f3
00
fa
fd
ff
fa
00
fb
fc
12
0b
ff
0e
09
04
06
03
ff
06
02
01
0f
06
05
0b
08
00
05
03
fd
02
ff
f6
f5
0f
04
08
f6
ef
fe
ed
eb
f9
f8
ee
f5
04
ff
f9
0e
0e
fe
01
f7
fd
03
fd
0d
02
03
0d
08
fe
0e
02
f8
01
fb
f4
fd
01
fd
f7
f6
f4
f0
08
07
09
13
0c
0c
00
fe
03
f5
f2
f5
00
03
00
fb
00
03
02
05
0b
05
04
f9
05
04
f9
12
0e
03
fc
ec
f3
f8
ef
f1
0a
08
05
08
f9
f7
05
04
0d
07
12
1f
00
00
01
01
00
04
00
01
00
f9
fa
00
fe
fd
03
00
00
05
fd
01
01
f6
ff
06
fc
06
0c
f4
00
fb
fd
05
ff
17
14
0a
0e
06
07
05
fd
01
05
06
08
f8
f7
fd
fa
fa
02
02
01
0b
fb
f7
f7
fd
f6
f9
09
04
07
01
f8
f8
00
f7
fb
ff
00
06
09
08
07
fa
f9
ff
f0
ee
f4
06
02
07
fb
f8
fb
f4
f6
f9
fc
02
fe
fb
ff
00
fe
06
0e
06
fe
fe
06
f6
fb
05
f9
fb
12
0d
0c
0b
05
01
f9
f6
f7
fb
fd
00
fb
fe
02
12
15
0b
10
0e
10
03
01
06
ec
e9
ef
f8
f4
f4
f7
f6
f5
f8
fa
00
fe
ff
01
fd
fb
00
fb
fa
fd
00
fd
fe
fa
f7
fb
fa
f9
fa
fc
fc
fe
01
00
06
fc
fc
fe
02
00
fc
01
02
fe
fe
06
02
01
fd
01
ff
fb
00
fd
f9
fc
01
ff
02
07
05
0a
06
04
04
fa
00
fa
fb
01
fb
f9
05
fd
08
03
03
03
00
ff
fe
fb
00
fd
00
01
fb
fd
03
01
04
0f
fc
04
01
00
06
03
02
0a
04
f7
fe
ff
01
01
01
02
06
01
02
07
01
00
06
ff
fc
05
f9
05
ff
06
fb
f4
00
ff
fb
07
03
01
03
07
03
02
fc
fb
fb
03
03
01
08
04
07
04
fd
fe
fe
02
06
fb
fe
05
ff
fb
fa
fe
02
fc
00
02
fd
ff
02
fe
05
02
02
08
05
03
00
fd
f7
09
17
0c
fe
0b
04
ff
14
09
f3
05
ff
f7
02
fe
fa
01
f6
02
11
02
ff
08
01
f8
07
00
f8
04
f9
f9
05
f9
f6
f7
f2
fb
07
02
02
04
fc
fb
fd
f8
04
fe
fc
02
fb
fd
ff
00
f7
fe
02
f8
fc
ff
f5
f5
fb
f4
f7
f9
f9
fc
02
03
05
11
10
00
f9
f7
05
04
fd
0a
0c
04
fc
fa
ff
fd
fe
05
f8
fe
04
fd
05
02
fe
fb
fe
f7
fe
fa
01
fe
03
f9
fc
00
fd
01
ff
02
03
00
fe
00
ff
fa
ff
fd
ff
03
fe
ff
ff
fb
fd
fc
fc
fc
fc
fd
01
01
01
01
ff
f8
05
02
06
01
fd
02
ff
fa
ff
02
08
04
03
05
05
03
01
05
03
04
fb
00
06
fe
ff
0d
03
04
0c
0d
0a
0a
0c
08
08
05
fd
f9
00
fd
ef
fc
fb
ed
f3
ff
10
00
f8
0d
fa
f3
03
f4
fd
f6
fe
fc
ef
fe
f9
f0
fc
fa
fd
00
f8
fc
01
fa
01
01
09
08
02
05
08
02
fe
05
01
fb
fb
f9
01
fd
ff
01
f7
f7
f8
02
06
fc
01
09
02
0b
0f
ff
07
fe
03
07
ff
fd
f9
f7
04
fe
00
07
00
00
01
fe
fa
0a
06
0a
03
fa
01
fb
fe
fa
f8
ff
f2
fd
fe
f3
ff
00
f8
01
02
00
01
01
00
01
03
ff
07
06
03
fb
ff
fc
f9
03
fe
ff
ff
fb
02
01
02
ff
fe
fb
fd
07
00
02
07
ff
ff
fe
f7
01
03
03
04
fd
01
fe
f8
f9
fe
00
f7
03
04
f8
04
03
f9
01
0b
ff
0a
0f
03
07
0d
ff
fc
01
ff
09
07
05
03
01
04
f8
fa
fc
fe
ff
01
0a
0b
09
fe
fd
00
03
02
03
00
03
fe
fc
fb
fe
f4
f4
fd
ef
f0
fa
fa
f4
01
fd
fa
01
fd
fe
fb
fd
08
fd
03
09
05
05
0b
02
fe
04
fb
06
04
fe
05
07
fe
f9
05
fa
05
0e
02
01
0d
03
fa
07
fe
f9
02
fe
fd
03
fc
f7
ff
01
f6
fb
fb
f5
f8
fa
fd
00
02
ff
fd
fd
02
ff
fd
00
fe
fa
fc
fc
f8
02
fc
fa
fe
fc
fb
fe
fe
fc
01
02
04
00
00
fe
01
04
04
06
07
03
02
01
03
fa
fb
fe
fa
fe
fa
fc
00
04
fd
01
04
fd
fe
00
ff
00
01
00
ff
fd
fd
fd
fd
f8
f7
f8
fd
fb
fc
fc
fd
fb
07
02
fa
02
00
f9
03
01
fe
fe
00
00
ff
01
02
03
03
06
fd
fb
fe
01
ff
00
03
06
05
ff
f9
fb
f8
f6
f6
f7
f5
f5
fb
01
02
04
06
05
fb
ff
00
01
fc
fe
fe
fb
fc
02
04
04
fe
02
fe
fd
01
fc
fa
f9
f9
fd
fe
fd
fc
f9
fa
04
05
04
fe
ff
02
fb
ff
03
04
09
0c
fd
f5
f7
fa
f6
f7
f7
f3
f3
06
ff
fb
07
01
fc
09
02
fe
05
07
0c
03
03
08
05
05
0b
08
06
08
04
07
04
06
07
06
01
02
01
01
01
00
00
fd
fc
fa
fc
fb
f3
fb
fb
f8
fd
fc
02
ff
ff
00
04
02
05
07
05
fe
ff
04
06
07
09
fd
fc
ff
fb
fe
02
fe
00
02
07
0b
0c
05
04
02
0c
0a
08
09
04
ff
f3
fa
00
f8
fb
fd
04
09
09
07
0a
09
01
02
03
01
01
ff
05
fe
01
06
02
ff
00
fe
fe
fc
fe
05
01
02
09
fe
01
07
fd
ff
02
01
01
05
03
04
04
05
04
06
fb
fb
fd
fb
fb
fb
fe
fd
00
fe
fb
fb
f8
f9
f9
02
fe
fe
02
fd
01
f8
fa
03
ff
05
0a
00
fd
04
fe
fc
ff
fc
fb
fa
f6
f6
f6
fa
fd
ff
0a
0c
0f
0b
0c
0e
09
0a
0b
08
00
03
08
fe
02
05
ff
04
02
01
01
00
03
02
ff
00
fc
06
02
02
02
fe
ff
04
fd
03
07
ff
02
07
01
02
02
fd
f6
02
02
fb
04
06
01
06
09
06
fe
fe
ff
fd
fc
fd
f9
f5
f7
03
fe
fc
04
02
fe
07
07
05
09
03
08
00
fc
fb
0d
0c
0b
f8
03
02
fe
04
01
05
01
fe
fe
00
ff
fd
00
fe
ff
00
02
ff
fc
fd
fa
f8
f9
f6
f5
f5
07
07
06
01
02
04
03
06
06
fe
f9
05
fc
f9
01
f5
f3
fc
05
06
07
05
09
08
03
05
08
fa
f7
f7
fd
fd
fa
f9
f7
fa
01
ff
03
f9
f8
fc
fe
f9
fc
03
07
05
03
04
05
fd
fc
ff
fa
fd
fb
fe
00
fc
fd
fc
f8
00
fc
fd
00
02
ff
0a
0e
0d
ff
fc
fe
01
ff
00
fc
f8
f9
f7
f9
fa
fb
00
fc
03
05
05
04
01
01
02
02
ff
06
06
05
f9
fa
fc
f8
fa
fa
00
00
02
f9
fb
fa
fe
ff
fe
0e
0f
0f
02
fc
01
fe
f7
fd
02
ff
02
04
06
02
0f
14
09
f9
f7
f9
fd
fc
fa
ff
fd
fe
fe
01
00
03
07
04
0a
0d
02
03
04
fa
fc
f8
fe
f9
f6
f9
fb
f8
fb
02
01
fd
08
07
08
06
08
09
fa
fc
fb
f7
f7
fa
fb
f6
f9
0c
02
0a
08
05
11
fc
02
0e
00
fe
00
fc
f9
00
03
04
07
02
0c
0b
fe
00
04
f0
ed
f2
fc
f9
0a
00
f8
fa
04
02
f9
02
0b
06
02
0c
06
f8
fd
f9
ff
f7
fb
01
01
04
03
05
06
0a
16
0c
ff
02
05
f7
f0
fb
ff
00
fe
fc
fe
fb
fa
f8
fc
00
06
01
f2
f8
f8
f5
f2
f6
03
0d
05
05
0c
05
f4
f9
f7
fe
fc
00
00
fe
00
00
00
fe
f8
f8
f7
fd
03
fd
04
05
03
07
08
03
fd
fe
f9
f5
f6
f3
fd
fe
05
fe
fc
04
05
02
00
05
04
fd
09
04
fe
07
03
fb
09
ff
01
02
fd
fd
08
07
ff
03
01
fd
02
08
03
fd
04
01
01
05
03
ff
05
03
fd
ff
fd
04
fd
07
fc
f2
fd
f9
fb
f9
fb
fb
fd
00
01
01
03
05
03
fc
fc
06
fc
fc
03
fc
fa
01
0c
10
11
01
ff
00
00
fb
fd
04
0d
0c
00
05
0a
fa
fc
fa
08
0b
0d
f1
f0
f7
00
fa
fe
00
05
ff
01
ff
00
fe
fb
01
07
02
01
01
ff
fd
f4
fe
ff
08
ff
02
07
fd
03
fe
04
08
0e
0e
0e
ff
fb
01
ff
f9
03
fd
00
fe
02
03
02
fe
03
03
06
f9
f8
05
fd
f9
f3
05
fc
fd
01
01
03
02
02
05
01
07
f9
ff
f7
fe
02
f5
fe
01
02
08
07
fd
04
05
fb
f6
f7
f8
02
01
fe
f9
f5
f8
fc
f8
00
07
04
05
09
05
06
03
fc
ff
0a
0a
0e
01
fd
03
fc
f6
03
fa
f8
08
04
fe
01
0b
01
f7
08
09
06
0c
08
ff
02
01
f2
0d
ff
05
08
03
04
00
06
04
00
fd
04
fb
fb
06
fe
fd
05
fb
fd
ff
fa
f7
f9
f9
f6
fa
fa
f9
0b
f4
fa
09
fc
fc
fa
fe
01
01
00
00
fc
00
fe
ff
fd
fb
ff
f9
f2
f9
ff
fc
fb
0a
08
fd
06
02
fb
fe
fd
fa
f9
ec
f8
03
f9
fc
05
02
ff
03
08
04
fe
fe
ff
f6
f4
fa
fe
f5
f9
0a
fc
f9
0b
03
fd
02
00
03
ff
fb
04
f9
f1
fa
ff
ff
00
03
04
04
05
01
06
fe
01
fc
fd
02
fa
01
03
fe
02
02
fd
fd
00
f6
fb
ff
f8
fb
fc
06
f5
ff
0e
ef
fc
07
04
06
fe
02
03
fe
fa
fc
fc
f1
f5
f9
04
03
06
01
00
fe
fb
f8
f7
03
06
00
0f
16
0c
02
00
fd
08
0b
05
fe
04
fe
01
00
00
fd
f4
f9
fb
f5
f8
fb
f3
fa
ee
ee
f6
ee
ed
f1
01
fe
fe
fd
fa
ff
ff
04
00
05
03
fe
00
01
ff
02
02
06
00
fb
fc
07
00
fe
0a
0a
08
03
fe
06
fd
00
fe
04
08
03
f8
fa
fe
ee
ee
f5
f9
fb
fc
04
ff
0d
04
00
06
05
09
07
05
05
04
05
0c
09
03
06
04
03
fa
06
01
f5
01
0a
00
07
fb
ff
0d
fc
f6
f7
0c
02
fb
fb
fa
fb
fb
f8
ff
04
04
04
fd
00
ff
fb
fb
fc
05
06
08
06
f8
02
fb
ed
f7
fb
f2
f9
fe
02
ff
fc
fe
fe
fb
fe
fb
05
04
01
fa
f1
f4
f6
f4
f5
fe
06
08
fa
fa
fc
f9
fc
fc
f7
f6
f7
f6
f6
f5
f8
f5
f5
fc
f8
f5
fa
f8
f8
fe
ff
fa
fb
f2
f6
ff
fb
fa
ff
01
fc
02
15
15
04
02
05
09
f8
f5
11
10
0a
07
02
07
0c
0a
11
0c
02
03
05
fc
fa
0a
0b
01
05
06
01
fa
fd
fd
fd
ff
ff
06
01
05
fe
fb
f9
fe
06
ff
09
04
fd
07
02
fb
08
10
0a
05
0a
0d
fe
ff
03
fa
fb
fc
ff
03
07
ff
05
05
06
06
04
0d
0f
0a
04
09
06
ff
ff
fd
00
01
ff
ef
ec
f4
01
01
08
ff
fe
ff
fd
f8
fb
fc
f9
fe
fb
fb
f9
fe
f6
f4
f7
f3
f6
fd
fa
03
03
fc
04
fd
02
09
f6
ee
f6
f8
f4
f0
f8
fc
f9
ff
ff
02
00
fd
ff
fb
fc
fc
fe
01
fd
fd
fb
fb
01
05
04
fd
06
10
01
fc
05
f8
f5
fa
01
ff
01
fc
f8
ff
02
fe
05
f4
f2
f8
f5
f6
f8
f8
f8
f6
16
14
0e
0f
0e
0a
09
08
06
f9
f6
f7
f8
f7
f7
fa
fa
f7
00
f9
fa
fb
fa
fb
00
ff
fa
f9
f5
fd
fe
fc
f7
08
07
01
fc
fe
02
fc
fe
fb
03
08
ff
07
00
06
02
f5
f9
0e
fe
fe
05
03
fd
fe
fa
f7
fc
fe
f9
01
01
00
06
03
fc
0e
0d
04
f8
f1
f2
f5
f3
f1
02
02
fd
13
0f
11
ff
03
0e
f3
f7
05
fd
fd
fe
fe
fe
fd
fe
fd
fd
f6
f6
f3
f7
fa
f5
f9
fb
f6
ff
00
fe
ff
01
ff
03
05
05
03
09
05
fd
ff
fc
f8
fe
07
09
08
07
00
ff
03
fb
fe
fc
08
08
01
09
05
00
06
07
01
fd
04
08
f3
f3
fd
fc
03
08
00
02
04
fe
fc
fe
03
05
06
05
04
05
07
06
04
04
03
02
fb
f4
f6
03
06
05
11
16
10
fe
f9
08
fd
f9
01
fe
01
01
03
fb
fc
fc
f6
fa
00
ff
fb
fc
01
04
f9
f5
fb
03
02
fe
fd
04
fe
f7
fb
f3
f5
f7
f2
fd
fd
fc
02
fc
f9
0d
08
00
fd
f9
03
ff
00
07
02
03
05
ee
ed
f3
f9
f2
f4
fb
fd
fa
02
01
00
ff
ff
01
00
02
05
06
0c
0b
f9
f8
ff
00
03
02
fe
02
04
ff
03
03
01
04
04
07
05
05
00
01
00
ff
00
01
f9
01
01
f8
04
09
00
08
0d
08
09
04
fe
00
fd
fe
04
01
04
0d
08
f8
fc
fb
f6
f9
f9
07
03
03
05
06
0a
02
00
04
15
03
f9
12
02
f9
13
0f
03
f5
fa
f9
fe
02
06
01
03
05
f8
fd
ff
f5
f5
f5
f8
fe
fa
07
02
02
fd
f5
f8
fc
f1
f4
fb
f9
f7
f9
f9
fe
fc
fd
fe
f4
f1
f6
fd
f4
f8
0f
11
0f
12
0c
08
03
fb
fa
01
00
01
00
01
03
f8
f9
ff
fb
f7
fe
09
02
00
00
ff
00
fd
fd
01
00
04
fd
fc
03
04
f9
05
04
08
05
fe
fc
f8
ff
01
03
00
f6
fb
f5
f1
f4
f0
f3
f7
f3
04
09
09
01
03
05
05
05
08
fe
01
03
04
00
04
06
02
01
01
00
01
f3
f5
f6
fa
fc
fa
03
05
07
f7
f5
fa
f8
f8
fc
00
00
ff
fe
fb
f5
07
02
fc
05
08
07
f6
f6
f7
01
04
01
fc
fd
fb
f2
f8
f9
fa
ff
fb
f0
ed
ed
ef
f0
ed
f0
f7
f6
fe
01
02
f4
f7
fd
f7
fb
fb
00
04
00
00
04
03
fe
fd
ff
fb
fc
00
ff
ff
fd
03
ff
fd
f6
ff
07
f5
f7
fc
07
fa
fb
0a
0f
0e
fc
fe
fd
f6
f6
f5
06
05
05
fb
fb
fe
f7
fb
ff
0a
0a
0b
06
07
07
04
07
07
f8
f3
ed
fc
f9
f3
00
08
05
00
f7
00
05
fe
02
0d
06
07
fd
f9
fc
07
ff
00
0c
0a
05
fa
f6
f7
f8
f4
f3
03
04
03
05
04
02
01
fd
fb
fc
ff
fc
19
26
26
fc
04
05
f5
f7
f7
fd
ff
0e
f6
f3
08
03
ff
10
06
fa
f2
00
f6
f6
f7
f7
f5
fb
fe
ff
03
f8
fb
08
ff
fa
07
06
0a
00
f8
fd
0d
05
03
01
00
02
f8
f3
f3
fa
fc
fc
f3
01
f9
f8
01
f6
00
0b
07
01
02
01
02
02
02
02
01
ff
ff
06
00
f3
f7
fc
f4
f6
fa
fd
02
07
f7
f8
fb
02
08
06
f9
02
07
f0
ef
f7
f9
f3
fa
01
01
03
fe
ff
fe
01
02
04
05
04
04
fb
fd
fe
09
07
05
06
0c
0e
f6
f9
fc
fa
f6
f6
00
06
05
00
09
0b
04
03
03
ff
04
07
02
02
01
02
04
04
04
03
0a
0c
06
08
0e
16
16
00
05
05
fc
f2
f0
04
f1
e9
01
02
04
01
01
07
08
0b
0b
09
ff
fc
0c
0a
08
0c
08
0e
01
07
00
fa
00
fc
fe
fd
f9
0b
ff
02
0f
04
01
0c
06
03
03
0b
0b
fa
fd
fc
01
02
fa
0a
01
f9
0d
06
fe
fb
04
0b
ff
ff
fe
f7
00
fe
f9
01
ff
03
03
01
07
01
fa
05
ff
fa
0c
01
fe
0f
01
f9
15
04
fb
fc
02
03
fb
fc
03
f7
f9
fb
03
f6
f3
02
f6
f7
f4
f3
f8
02
fe
fb
09
fd
f8
12
02
fc
f5
01
04
fe
09
0c
02
0b
0d
00
fc
ff
fa
fb
00
01
fa
fb
06
10
05
0c
15
07
fb
05
05
f8
fa
f7
fa
ff
ff
fc
04
08
04
fd
fc
05
fc
fa
09
03
fc
04
fd
01
00
fa
02
03
fb
03
f8
fc
fa
f2
fb
fd
f5
05
0b
1e
f5
e8
2b
00
ea
22
fc
ee
0a
00
f8
01
00
fa
fa
fe
02
fc
00
ff
fb
fc
ff
fe
fd
fa
0c
01
fa
05
fd
fc
fd
fa
fc
f8
fb
08
ef
f6
08
fc
fc
0b
00
03
ff
04
04
fb
01
fd
f6
f5
f8
fd
f5
fb
07
02
07
09
f9
05
11
fa
fe
08
06
00
fd
01
fd
f9
0b
06
fd
09
0a
03
07
00
ff
06
ff
01
fe
fc
ff
f8
fa
fd
fe
fa
f6
0c
00
f3
fd
ff
0b
f7
fa
06
fc
fa
03
f4
f6
01
f4
fa
05
f7
fe
09
ff
09
00
fc
09
03
fb
08
07
fc
e7
ea
fa
ef
fd
04
ff
08
fe
fd
f9
fe
fa
fc
f8
f9
fa
00
08
01
00
06
03
02
06
03
07
06
08
fe
08
06
04
0c
06
f2
ff
0a
f1
fa
05
fe
00
00
fb
00
04
fc
ff
02
01
fe
fe
fd
02
03
f9
01
06
f6
07
0d
02
f5
f3
03
f6
f6
0d
fc
f5
05
f9
f4
03
fe
01
f9
05
13
0e
01
fd
0d
00
fd
02
fd
02
f6
f5
fd
fd
f7
01
0a
f8
fe
02
03
fe
06
02
01
fb
ff
03
ff
f1
f3
02
f9
f9
00
02
ff
03
09
02
fd
0b
07
ff
0e
12
f8
04
0c
f5
f7
01
08
f5
ef
f5
fc
f8
f6
05
00
04
10
10
f7
f7
02
fe
fa
ff
0d
04
fc
08
02
fe
08
fe
f8
08
fd
f5
05
fe
fc
f6
f2
f7
00
f6
f8
f9
f8
f1
fd
03
00
05
12
0c
fd
fd
00
fe
fd
ff
ff
fe
01
f7
05
08
ef
fa
04
f5
f7
fe
ff
fc
fa
03
00
fb
03
00
fc
fb
03
09
f4
00
09
fb
09
08
ff
01
fe
fb
02
04
f7
fe
08
18
05
fe
1e
07
fb
1e
0b
f5
11
f9
ef
14
f4
f0
0e
f6
f1
00
f8
f7
04
ff
01
02
03
0d
f3
f8
01
f1
fd
fe
fd
05
07
0f
ff
f5
08
ff
f0
07
f9
f3
fd
f6
ff
05
f8
fe
16
fe
fb
0f
fd
f8
0e
fb
f8
05
f8
f3
fc
fd
fe
05
00
00
05
02
fd
fb
02
05
f5
fa
00
f6
fb
00
0d
03
fe
0d
01
f8
0d
01
fe
f5
fc
fe
f5
fa
fb
00
fd
f6
f2
f5
f2
ee
ff
eb
f9
08
fe
f8
f9
f5
ff
fa
fa
fa
f8
f8
05
02
fe
07
09
02
fd
06
fe
fb
f7
fe
f7
fb
fa
f9
fd
fc
01
09
01
01
08
00
fd
fe
fc
f7
fd
f6
01
00
fc
05
04
04
0b
0e
0a
fe
0b
03
fb
04
fd
ff
07
03
f6
fa
f9
fd
00
ff
f9
0a
fb
07
18
0c
fb
08
00
f6
f9
01
e4
ec
f6
e8
f4
f6
fd
01
fe
00
06
00
fe
fe
ff
0d
02
0d
fd
f6
fc
f7
f8
fb
fc
00
f7
01
08
01
fe
08
fd
f9
ff
f6
fb
01
f7
05
ff
01
00
02
01
fe
06
fd
fe
06
00
fb
01
fd
fe
0a
06
f5
fc
f9
fe
f8
fe
fd
f9
fc
ff
fa
fd
f7
f5
f7
f8
f6
f4
fc
f8
fb
fa
0c
fa
f4
0e
fa
f4
12
f9
08
00
04
f6
f5
ff
f2
ef
f0
13
04
06
0a
f6
f5
f9
f0
f4
0c
0b
0b
0c
11
0f
fd
01
fa
05
00
0f
0a
03
10
fb
f8
fc
f8
fb
f9
fd
fe
f7
ed
ec
ee
05
fd
03
ff
ed
f8
ff
f0
fb
04
00
fd
10
12
0b
07
09
01
ff
02
00
fd
00
fd
0e
15
0c
0a
10
00
fd
04
f8
01
01
fa
f7
f5
f9
f8
e9
e4
f0
ed
f1
05
08
02
fb
f3
fb
07
ff
07
0a
0b
0a
05
09
02
02
fd
ff
fb
02
ff
02
01
f7
00
fc
f1
02
03
03
08
05
08
04
04
03
02
08
05
f8
fc
fa
fa
fa
fa
f6
fa
f7
fc
fa
f8
fd
03
ff
0d
0e
fe
f6
f5
e4
ef
f0
d7
fa
f9
f7
fe
fe
ef
01
01
fb
f1
06
ed
fa
1d
f6
f6
11
f5
1b
04
1c
16
02
0f
07
00
04
eb
f7
e8
fc
13
fb
15
21
10
04
03
03
fb
ff
f7
f7
00
f8
07
06
0b
f4
00
f8
f4
00
f4
14
0b
10
19
08
12
ff
f6
f8
ff
f9
fe
f2
ef
fb
f2
ef
ef
08
00
05
09
fb
09
ff
f5
fb
f8
f8
ff
f5
f9
f8
f7
fd
f9
03
06
ff
00
01
fc
fb
fa
fb
f9
0a
0c
eb
f2
fa
d8
ed
f3
02
01
01
fe
fd
fe
ff
ff
fd
fd
06
f9
f7
f6
f7
01
02
fc
09
ff
01
fb
f5
f6
f8
f8
f8
fd
fb
fd
02
fc
fb
f5
f1
f2
f4
f4
f6
fe
06
02
04
08
09
f4
ff
f9
f0
fb
ed
f6
fe
ec
0b
0d
0a
07
00
03
fe
f6
fd
f7
03
fc
04
0e
06
