d2
ad
c6
27
35
29
0d
13
0f
03
fb
05
2a
46
3f
b2
a9
c1
25
18
24
46
5e
4d
9f
8f
ae
f7
12
f6
ee
f9
f2
ef
ed
eb
09
2d
15
0e
26
0a
0b
0d
06
18
35
20
21
2d
24
0d
19
15
1c
2e
0c
a4
87
c0
39
53
40
2a
3a
10
a2
8d
bc
2b
41
31
19
2f
0a
aa
94
be
33
45
3a
23
27
00
36
19
e9
19
01
f7
f9
ea
cb
ff
d2
b4
ee
c0
c8
01
1a
14
06
00
f1
f8
ee
fb
23
dc
00
d2
51
dd
df
31
f8
0f
d7
15
b7
52
ef
d0
1d
07
15
e8
0f
c7
5a
e5
d5
2c
f9
20
14
f5
2a
00
d4
10
d6
ec
50
0c
b9
64
ff
97
46
e2
be
5a
19
a6
7a
0c
86
57
ee
a9
e5
df
dd
ef
e6
ed
ee
e9
e7
37
49
3a
53
65
54
42
5d
44
dc
d7
e3
b6
aa
bd
c5
b1
ca
10
fc
fd
17
08
07
25
1a
1c
fa
fd
f6
05
fd
f9
09
01
ff
f0
ec
ea
06
fe
f1
0f
13
07
13
d2
28
49
bd
b8
29
37
ed
ee
b1
1a
3b
b2
ae
43
47
f5
f8
c6
1b
35
b7
bc
43
44
fb
00
39
bc
cb
7f
e6
b6
10
18
f5
38
cd
b6
77
fe
a2
0c
21
02
3d
c6
c6
75
eb
af
18
14
4e
00
b5
61
fe
a1
56
f9
b4
02
09
02
00
fd
fe
fe
ee
ff
ba
03
36
be
04
44
c8
05
42
f7
2a
df
f9
32
d4
00
24
db
e1
24
fa
dc
32
f0
ef
1e
f4
e8
19
ff
e8
22
f6
ee
19
fa
e9
e3
10
ef
c6
d7
dd
fc
ce
22
19
51
2b
1d
23
10
46
10
f8
de
0e
f5
dc
df
e8
00
d5
e0
0d
19
b6
2c
22
c7
27
14
b7
fa
37
90
18
4b
ac
27
38
ce
0b
30
9f
24
3f
b5
2b
28
f7
f0
f5
26
3d
26
38
33
20
d9
ec
e4
f7
0b
f8
f8
ec
eb
02
0f
11
20
30
2d
04
07
fd
ee
ef
11
c3
c8
e2
b4
a1
ca
1f
16
1b
34
35
31
3b
26
18
f6
de
c0
32
26
03
42
24
04
50
65
56
fc
ec
e5
bc
ac
c1
51
6a
52
fa
ef
f1
bb
a7
c9
2d
3a
26
f7
eb
e2
da
cc
e2
db
d3
e8
ce
be
d2
e0
da
ea
11
0f
07
03
f0
fd
01
e5
e5
3d
4e
39
41
38
2c
25
10
02
03
0a
ff
fd
00
11
19
09
fa
e8
f8
f1
f0
f7
fd
f2
ec
df
fe
fe
fd
f7
03
03
11
07
fb
f5
d4
c6
f4
cf
ca
09
fd
f4
0d
e6
da
00
f8
e6
18
0a
04
fe
e6
e4
fe
f7
fb
0f
13
0b
4d
13
a7
4e
cf
d9
81
0c
7f
56
10
96
36
c7
ea
80
02
7f
43
19
ab
45
e4
e4
82
0d
70
e4
1d
f7
13
6d
fe
b3
01
94
e0
10
f1
19
7f
1f
c6
16
be
cd
df
da
1a
49
0e
eb
1d
db
2d
35
fd
4c
57
16
28
28
f0
b6
b0
d4
99
95
bf
c5
c7
e8
14
21
2c
17
17
2d
15
18
2f
06
0c
13
11
19
15
ff
09
0d
13
19
1b
0c
10
02
18
09
0e
ee
e7
df
e5
ca
d1
ec
e3
e7
a8
8b
ac
00
e3
e8
60
7e
6e
d8
be
d6
00
f7
f9
2d
42
35
f5
eb
f7
07
ed
f0
0e
1f
1a
d1
9c
7f
37
18
ac
f0
49
cd
d8
9c
7f
4a
13
93
f1
42
c5
d0
a3
7f
3f
21
b1
e8
40
da
a4
72
d4
aa
7f
b5
e4
6c
c8
c0
6f
cc
c0
7f
af
e9
61
a8
cb
66
e6
c0
7e
b7
e6
4d
c1
1d
f6
d7
2c
32
a8
04
63
d7
0e
e4
cc
2c
1f
96
0e
55
c7
04
f7
ea
1a
2e
b9
f9
4b
df
f9
b5
21
ab
ee
58
f5
45
26
ff
9e
04
a9
de
58
fd
3b
36
f1
ae
0a
b7
d9
4e
f1
36
33
e3
07
4c
bd
cd
4e
d5
a7
27
fe
1c
5a
d8
e3
61
e3
b3
1c
ee
0b
3d
ce
df
41
f3
b9
11
3b
49
33
41
58
38
2d
3e
27
e1
e3
ee
e1
d8
e9
eb
e9
ed
d1
c0
d4
c6
b3
cd
de
cf
f2
ba
bc
dc
c8
be
e2
e9
e7
05
e2
f6
01
fd
fc
06
fd
fe
02
fe
23
27
33
4a
45
2d
3a
3d
