f4
14
dc
25
f4
d7
cc
ba
2b
e3
e3
d6
27
09
ec
1e
08
b9
de
f6
18
0d
d3
00
e5
aa
34
eb
1d
d2
f8
2f
f1
0c
14
48
c1
1e
3c
c0
de
42
e7
ef
21
f0
31
05
15
fb
ce
e5
27
ac
18
3a
0b
cf
09
c8
23
07
bb
3b
e6
f8
00
e1
18
f8
15
11
bb
1d
c3
0e
a7
25
cd
16
fe
03
21
ee
12
3a
46
32
20
c1
2b
0e
f0
ef
ca
1f
08
29
31
00
f4
ad
09
ec
0e
09
c0
be
38
12
d3
07
ed
eb
29
14
ed
bd
bf
33
1a
bf
1d
d7
d6
16
4c
20
ba
dd
0b
ee
0a
e1
15
18
20
fa
ff
cb
fa
dd
12
30
01
2a
51
c9
15
f2
ea
f0
fe
e0
cc
5d
ca
22
e0
a1
2c
10
cc
de
d1
03
04
d3
02
34
ed
1c
e5
da
2b
d4
ea
13
21
2e
12
0d
f7
23
ee
b3
dd
2c
3b
dc
2e
25
11
0a
03
e2
23
fb
4b
17
fd
32
3b
e7
23
13
de
f7
11
f6
eb
1e
e6
c7
f4
f8
fb
15
c6
df
32
c9
13
3f
2d
b4
e5
2e
13
e8
06
51
f3
d3
42
f9
f8
e5
7f
35
2f
0d
fd
d3
cc
f0
1c
d7
b7
4b
4a
e1
ba
d0
0f
fb
1a
02
2d
1a
cd
46
c5
11
18
05
1d
16
c4
ea
ff
15
cc
e4
12
03
df
f2
3d
96
22
25
ca
c9
0a
dd
a8
04
3a
0e
f2
fc
0d
cc
0a
f4
b7
29
2d
23
e4
c6
e9
27
de
23
af
df
ed
0f
0b
e6
75
52
ba
5c
cd
d6
e2
dc
27
04
55
23
0c
d5
ec
0b
d4
ed
e5
3d
71
ce
da
da
09
04
cf
05
cd
f1
e6
f2
ee
2d
15
21
44
cc
c2
ff
f9
0d
3c
f0
f8
12
dd
c9
eb
28
e2
52
05
67
e7
1a
d8
db
63
64
c7
ff
d7
4c
e2
f7
51
16
2f
13
47
d9
fb
1a
2a
03
52
f7
1a
fb
c0
c8
1d
3a
06
12
36
c2
22
05
c9
2f
19
24
35
e9
dd
ea
f8
07
12
13
1c
1d
e5
d3
02
e7
23
01
fb
f2
e6
e4
f8
d8
6a
4a
cc
27
d9
7c
f4
f3
21
08
3b
bc
df
ec
c4
cd
c1
37
29
f3
17
d8
f7
7f
10
23
dc
29
f4
f3
fd
ed
02
1a
2c
fa
dd
f7
4f
19
f2
e6
0d
1a
19
12
0a
c6
f3
19
0f
e0
e6
0f
d3
f5
cf
1b
09
04
d0
14
f6
b8
f9
03
fe
09
f3
ed
1f
d8
fc
10
f8
e9
29
39
d6
06
f1
15
00
12
fe
3b
1c
ec
f3
2c
1a
b6
23
17
1a
20
14
12
ff
eb
c3
fd
d7
53
01
03
f2
5b
34
05
19
b5
68
a5
dd
49
20
23
d2
1e
af
10
f6
2d
01
cb
dc
e3
d6
f1
b6
3a
7a
d9
4e
0d
1d
25
bc
e4
b5
5a
20
e7
f3
04
c5
c4
42
fb
10
df
da
0c
ce
e9
db
e8
f9
42
15
00
e2
23
e6
ff
e0
b4
16
0e
f4
e1
d1
1c
1f
de
d0
38
35
b4
fe
06
1b
ec
69
20
f9
d5
06
d1
00
c9
02
d6
e8
32
2e
03
d2
c8
e4
e9
f3
e0
e2
ef
ca
3c
06
06
0b
2b
f3
0b
05
25
5d
d3
ee
7d
d1
7f
e4
25
f6
00
ea
2f
ff
f0
e4
0f
d2
c2
c8
04
fa
f8
de
09
d4
1c
13
27
bc
e4
01
d8
37
27
ce
1e
f8
d5
e5
d4
3e
3d
cf
fb
d1
ba
e2
f0
fc
1b
48
bf
ec
10
25
59
f7
44
1b
c6
f4
04
32
e7
f6
16
fd
ff
e0
ef
20
f4
02
d0
21
bc
f6
05
4f
36
74
ea
19
e4
0f
19
ee
0e
db
41
02
0b
ec
07
c2
ca
fc
16
dd
e8
ed
fc
1a
48
06
f9
f5
da
19
0d
06
fa
27
13
1a
f6
21
21
c3
0d
fa
ea
e3
fb
fd
cc
cd
e1
fa
eb
22
fa
d9
12
34
20
32
11
01
2b
1e
fd
1f
cf
cd
f1
15
f6
58
11
7f
21
de
05
27
09
28
b4
3e
04
f8
04
ba
b4
37
e9
18
43
d0
03
e3
1b
16
52
f9
2e
c6
1b
fe
f2
02
c8
35
04
0c
e7
2e
ec
cb
f3
cc
dc
f3
e7
d4
f7
1e
39
f2
b8
17
be
e2
db
1d
10
e3
db
d0
32
d4
34
b6
3a
f7
00
0e
01
f9
c6
1a
09
36
12
ce
dd
2d
ef
2b
d5
29
16
25
3e
0a
e7
de
0c
c8
3d
1c
36
e8
fd
bb
de
44
c2
02
c1
b0
e7
fe
df
f9
23
fe
fc
04
d7
de
b9
0f
10
d8
f2
e0
e7
e3
01
d4
13
4c
f5
fa
57
c8
22
f7
cf
de
f2
24
0e
a8
15
0b
d3
4b
d6
29
15
02
da
1c
fe
f1
d6
d8
cd
f1
bb
0c
df
08
0f
da
03
05
37
07
db
e6
d7
dc
f1
be
3e
dc
f0
23
22
db
dd
39
d3
0f
fe
b9
05
7d
26
03
f8
e1
d5
f0
20
61
da
f9
f3
fb
0a
30
34
28
45
f8
e7
f2
10
3e
ea
0f
16
12
7f
f9
08
1e
9b
ce
c2
e3
44
f4
19
42
d6
f7
da
1f
eb
ee
50
e9
49
17
02
f0
e1
f1
ca
bc
4f
14
e1
2b
0d
d3
c3
eb
03
f6
0a
3d
6c
0c
f7
c4
d1
f4
1a
df
2d
ee
14
fd
16
0a
b5
2e
0f
f6
21
2d
03
05
27
63
29
13
ee
ce
f3
54
f0
fe
ee
49
ed
f4
bd
00
50
07
0b
47
df
1a
2f
25
31
15
db
ea
25
d3
21
09
e1
45
f8
dd
43
cf
14
e6
5a
10
f9
ee
15
e7
d7
a9
25
31
c1
f7
f9
d9
c7
d8
f6
d1
45
cd
31
da
49
14
cf
12
e4
f2
0b
ae
25
1d
dd
d4
0b
e4
dd
1a
5a
32
03
4c
da
ed
ca
0b
fe
c4
df
5f
1b
eb
f1
e1
d4
f3
36
06
ec
cc
d8
18
00
10
ad
07
e3
33
e2
21
74
18
c7
fb
06
e8
21
0d
48
22
d3
e7
22
1b
06
e2
fd
04
47
f4
f4
0b
1a
07
25
62
c9
ff
c7
e9
2b
da
08
d6
15
00
bd
ce
e6
20
d8
fc
39
ef
10
e9
e2
ea
d7
4e
11
1e
f1
23
b3
0b
3f
01
e4
0d
07
f2
29
0e
09
e2
d7
22
c7
f2
4a
e3
e9
1c
fc
1e
c8
09
e9
e6
fa
e4
5a
07
e2
f7
0c
dd
d2
c3
11
3d
d8
e1
ec
ff
ec
36
18
f7
14
c8
0d
64
f1
dc
0a
